1111111101000011
0000000101000011
1111111100001011
0000000101100111
0000010000111110
1111111000111110
0000000010110011
1111111111010010
0000000000000000
0000001001010110
0000000011111001
0000000010000010
0000001001000001
0000001110110000
0000000100001010
0000000110101011
0000000101010111
0000001100101100
0000001001010110
1111111110111100
1111111110011100
1111111111001110
0000000001001110
0000001100010110
1111111110111000
1111110111001111
0000000111011011
1111111111011011
0000001000100100
0000001100111001
0000000010111111
0000000101010101
