00000001111100010000000000000001000000000000000000010000000000000001111100000000000000001111000011101110111100000000111000010000
00000000000000000000000000000001000100001110000011110000000000000000000000000000000000001111000011110000000000000000111000000001
00000001000000010000001000000000000100000000000011110000111100000000000000000000111100010000000111110000000100011111111100001111
00000000000000000000000000000000000000000001000011110000000000000000000000000000000000000000000000010000000000000000111100000000
00000001001000000000000100001111000011110000000000001111111100001111111100000001111111110000111100011111000100000001111000011111
00000001000100000000001011110010000011110001000111110000000000000000000000001111111000010000000100000000000100000010111100011111
00010000000000000000111000001111111100000000000000010000000000000001000000010000001011110000000000010000111000000000000000000000
00001111000100000000000000000000000000011111111100000000000100000001000000000000000111110001000000001111000000011111111011110000
00000000000000000000000000101111000000011111000000000000000111110000000111110000000111111111000111100000000000001111000011110000
00010001000000010000000000010000111111101111111100010000000100001111000100000001111100010001000011110001000000000001111100010001
00000001111100000001000000000001111100001111111100010001111111111111000100000000111100000000000100010001000111110000000000010000
00000000000000000001000000001111000100010000000000001111000000010000111100011111000000000001000000001111000000010000000011110000
11111110000000000010000000000000001000101111000100000000111011110000000100011111000100101110000111111111000100001111000011110000
00010000111100000001001000001111000000001111000000010000000011110000001011111111000011111111000111100001000000011111000000001111
00010000000111110000111100000001000000000001000011110000000000000000111100000000000100010000000000010000000000000000000111110000
11111111000011110000111100100001000000001111000100000001000000000001000011110000000100001110000000000000000111110001000000000010
00000001000000000000111100011111111100010001111011111111000100000000000011111111000111111111001000011111000000100000111100000001
00001101111111110001000011110001001111111110001011110001111111111111001000010011000100011110111100011111111111010000000100010000
00001110000111111111000011111111000111110000000100000001000000001111000000010001111100010001111100011111000011110010000000010000
00000000000100011111000000100001000100000001000111101111000100000000000011100001111111100000000100010000001000001111111100000000
00001111111100000000000011111111000100001110000100010001111111110000000100010000000000010000000011100000000000001111111100010000
00000001001000001111001000100000000011110000000100001110111000110000111011100000000011011111111111111110000000000001000000011110
00010000000100101111000000110000000011111111001111111110111100110001111111100010000011101101111000001101001011100001111100000000
00000000000000010000000100010000000011111111000000010000000000010001000000000001000000011111111111110000000000000001000111110001
11110001111100010000000100011110000100001111111100010001000100010000111100000000000011110000000100000000111100011111111100011111
00000001111100010000000100001111000000011111111011101111111100000001111100000000000100001111000111111111111100011111111111111111
00000000111100000000111100010001111100001111000011101111000000010001111111110000000000000000111111110001000000000000000000000001
00000000000100000000000111111111000000000001111111110001000000010000111100000000000100010001000111110000000000000000000000000000
00010000001011101111000000000001000011100000000100010001000000001111000000010001000100001111111111111101111011110010000100110001
00000000000111100001000111111110000011111111000000000010000000001110000100011111000000000001000000000001111100000000111000100000
11100010111100100100001100001110000100100000000000001101110100010000000000001111111100101110001111100001001000001111111011101110
00010000000000000001000000000001000000000001111111110000000000000000000100100000000111110001000000001111111100010000111100010000
00010010000100011110000100011110111011100000000000000000000000011111000000000001111111101111000000001111000011100010000100101110
00100010000000010001000111111111111100000000000000011111111100011111000000010000111000010000111100001111000000010000111000011111
00010000111100000001000111110000000111110000000000000001000000000001000000010001000100010000111100000000111100010001000100010000
00001111000000010000111111111111000100101111111100001111001011110011000000010001000100000001111011111111111000010000111111100001
11011110001000001111111000000000001000010000000111110001000000010001111000000000000100001111111111111111000111100001000011110001
00001111000111110000000000000000000100001110000111110000000000000001000000010001001000000000111100011111000000000000000100000000
11110000000011110000000000000001000000001111000000000000000000000000000011111111000000000000000111110000000100000000111111110000
00010001111100000001000011110001111100000000111111111111000000000001000000000000000100000000000011111111111100011111111000000001
00010000000111110001000011111111111111111111000111110001000000001111111100011111000000000001111100001110000000000001111100010000
00011110000000000001111100000001000000001111000100000000000011111111000100010000000100011111111111111111000000000000000000010001
11110010000000011111000100000001000000000000111100000000000100000000111111110000111000010000000111110000001011110001000011110000
00010001111000000001111100000000111100001111111000000000000000000001000000000000000100010000000111110000111100010000111100000001
00001110111100000001000111100001001011110001001011110001111111101111000100100001000000100001000011100000000011110000000100010000
11110000000100101111111100010001000100000000000011111111000000010001000000000000000011110000000000001111001000000000000100001110
00010000000100010000111100010000000000000001000100001111000000010000000011110001000011111110111111111110000111110001111100010001
00001111111100001111111100000001000100000001001011110000000100010000111100010001000100010000000000010000000111100011111100000001
00000000000000000000000000000000000000000000000000010000000000000000000000000000000000000001000000010000000000000000000000000000
00010000111100001111000000000001000100000001000000010001000100010000111100001111000100000000111111111111000011110000111100000001
00001111000000000000111111110000111100001111000011100000000100000000000000000000000000000000000000010001000000000000111100000001
00000000000100000000000111111110000000001111111111110000000011111111000000011111000000010001000100000000000000011111111100000000
00010011000100000000001000011111111100001111111100000000111100011110000011111111111111110000000100011111000000000000000000011110
11111111000000101111111111110000001000101111111111110000001000010010111100010001000100010001000000010000111100010000111111110001
00000000000000000000000000011111111100001110000000011111000000000000000000000000000000000000000000010000000000000000111000000000
00000000000100010000000000001111111100001110000100000000000000000001000000000000000011111111000011100000000100000000111100000000
00010001111111100000001011110000111111100000000111110001110100011110000000100000000000010000111100011111000011100010111100101110
00011110000111110011000011110000000000001111000100010001111111101110001100011111111100100001000000000000000100000000000100011111
11110001000000010001111111110000111100001111111111110000000100011111111100011111111100010001000000000010000100000010000000000001
00100000000000001111000000000000111000000000000000000000000011111111000100000000111100001111000000000001000000001111111100000000
00010010000111111111001011110000111011101111000000001110111000111101111000001101111011110001111100001110000111110010111100101100
00010000111111110001000100010001000000011111000000001111000011100001001011111111000111101111000100000001000000011110000011111111
00000001000011110000000000000000000100001111000100000000111100011111000000010000000111110001000000011111111100000001111100000001
00101111111100000010000000001111111100001111000011110000111111100001001000010001000100011111000011110000111000011110111011110000
00001111000100000000000000000000000000000000000100010000000000010000111100001111000000000000111111111110000100000001111100011111
00000001000000000000000000000000111000010000111000000000001000000000111111111111000011110001000000010001000000010000111100000000
11110000000100001111000000000000000000001111000000000000000100001111000000000000111100000000000000010000000000000000000000000000
00000000000011110000000000000001000000001111000000000000000000000000111100011111000100000000000011110000000000000001111100000001
11110000000000000000000000000000000100001111000000000000000000000000000000000000000000000000000011110000000000000001111100000001
00000000000000000000000000000001000000001111000000010000000000000000000000000000000000000000000011110000000000000000111100000000
00010000010000001111000100001111000000000001000100010000000011101111001111110010111111100001000011110000001000000000000000001111
00101111000011110001001011100001001011111111000000010010111111011111001000100010000011110000000111110001000100000000111100111111
00000000111100011111000100000001000100000001000100010001000000000000000000000001000000001111000000000000000000001111111100011111
00010000000000000001000000000000111000000001000011110000000100000000000011110001000000000000000000011111000000000000000011110000
11111111001011111111000111100000000111110000111100010001000000010000000000010000000111110001000000001111111100010001000000011111
00001111000011110000000000001111000000001111000000000000000000000000000000000001000000000000111111110000000000000000000000010000
00000000000000000000000000011110000000010001000011110000000100000001000000000000000100000000000011110000000000010000000000000000
00001111000000000000111100000000000000000001000011100000000100000000000000000001000011110001000000000000000000000001111000000001
11110001111100010001000100011111000000010000000011111111000000001111000011111111111100011111000111100001000111110000000011110000
11110001000000000000000011110000111111111111000100000001000011110000111100000000000100001110000011111111000000000001000100100001
00000000000000010001111100010000000000100001000000001111000100000001000011110000000000000000000000010001001000000000111111100001
00000010111100010000000000000000111111110001111000000001000000011111000000001111111100010000001000000010000000000000111100000000
11110000111100000011000000011111111100100000111111111110000000001110000000001110111100011111000111110001001011110001111011110000
11110001000000000000000000001111000000000001000011110000111100010000111100001111000000011111000000001110000100000000111000001111
11011111000000001111111000010000001000010000000000000001000100010010111111110000001000001110000111111111000011110000111111110010
00001111000100000001000011110000000000011111000100000000000000001111000000011111000000000001111100010000000000000001000011111111
00001111000011100000000111110001000100001111000000000000111000000000000100010000000100010000111111110000000000000000111100001111
00100000111100000001000011110000000011111111111100000000000011100000001000010010000000000000000011110001111000011110111000000001
00000000000000000001000000001111000100010000000111111111111100010001111100010000000100000000000011111111000000000000000011110000
00001110111100000001000011111111001000000000000111110001111111100000000100010001000000011111111100000001000011110000000100000001
11110000000000001111000000010000000000001111000011110000000100000000000000000000111100000000000100000001000100000000111100000001
00000000000000010000000100000001000111110000000100000000111000000000000000010001000100011111111111111111000011100000000000000000
00000000000000000000000000001110111111110001000000010000000100000001000000000000000000010000111111110000000000000001000111110000
00010001111100000001111100001111111111110001111100000001000000000000000000010000000000010000000011110001111100010000111100010000
11110010000100010000111100000000000000000001111100000000000000000001000100010001000111110001000100010001111100011111111100011111
00000000000000000000000000011111111100000001111100000001000000000000000100001111000000000001000111110000111100001111111100000000
11110000111111110000000000001111000000001110111100010000000011110000000000010000000100001111000011111110111100000000111000000000
00001111000111100001000111111111000000010000000100000001111111101101001000011111000111110000001000000000111111111101000000011101
00010000000000000000000000011111000000001111000011101111000000100001111100000001000100010000111011111111000000000001000000000001
00010001111100000000111111111110111100010001111111100000001000010001000000000001000100011111000100010001111000100000000100000000
00000000000100000000000000011110000000000001000000000000000000000000000000001111000000000001000011111111000000010000000000000000
11110001000000000000000100000000000000001110000000010001000000000000000000001111000000001111000100011111000000001111000100011111
11110010111100100010001000010000000000010001000000001101111000010000111111110000111000111110001000010001001011110000111111101111
00000001000000010000000100001111000000000000000000001110000000000001000000000000111111110001000000001111000100001111000011111111
00110000000000110001111100000000111000010001000000011110000011100010001011110011111100011110111100000010000100101110111011100001
00010001000000100000000000011111000000000001000000001111000100001111000011110001111000010000000000010010000100000001111100000001
00010000000000000000000100001111000011110000000000000000000000000001000000000000000111110000000000011111111100011111000000000000
00000000111100000001000000010000000000000000000000000000000011110000000111100000111100001111000000000001000100001111000100000000
00010000000000010000000000011111111100000001111100000000001011110000000111110001000011110000000111110001111100011111111000000000
00011110000111110000000000000000000000011110000100001111000011110001000100000001000111110001111100011111111100000000111100000000
00000000000100000010001111110000000100000000001011111110111011101111001011110000111100011110000000010000000111111111000000001111
00110001001011110000001011110001111011100000110111111111000100011110000000011111111111010011111000010000111100100000111100001101
00000000000000000001001000000000111100000001000011100000111100000000000000000000000000000000000111111111000000000000000000001111
00001110000000000001000111110000001000000000001000000000111011100000000100000001000100011110000000010001000011100000000000010000
00010000000000010000000000001111000011111111000111110000000011110001000100000001000000000000111100000001111100010000111100000000
00000000001000000000000100000001000100001110001000000000111100010000111100010000000100001111111100001111000111110001000000000000
00001111000011110000000000000000001000010001000011110001000000010000000000011111000100001111000011110000000000000000111000000000
00011111111000000000111000000000111100001111111111100001001011110000000000000000000100000000000000010000111000100000000000000010
00000001000000001111111100011110111111110000000011100010000100010000111111110000000100000000000000000000111111110001000100010001
00000000000000011111000100000001000100001111000111110000111100000001000000000001000000001110111100000000000111110000000000000000
00000000000100010000000011111111000100000000000011110000000100010001000000010001000000000001000000010001000000010001111100000000
00000000111000010000111111111111000100001111000011110001111100000001111100010000000100011110000000011111111100000000000100000001
00000000000000010000000111111111000000000000111100000001000111110000000100000000000000000001000000000000111100010000000000010000
11100000000000010000000100001110000000100001000011101110111100100001111011111111111100011111000111110000000111110000000111100000
00000000000011110000000000001111000011110000000100010000111100001111000000001111000100001111000011111111000011110001000100010000
00000001000000000001000111111111000011110001000000010000111000001111000000001111111000011111000000001111000111110001000100010000
11111110000111100010000100100000000000100000000100001111111111101111001111101110000111101111001000000000001011111110111111101110
00100001001000000000000000000001000000001111000000001111111100011111000000100000111100000000111111111111000100010001000000011111
11110001000011111111000000000000111100001111111100010001000000011111111100001110000000000000000100011110111111110001000000011111
00001111001011110000000011110000000111110001000100010001000000000000000000010000000100000001000000010000111100000000000100010000
11110000000000000010000000011111000000100000000011111111000000001111000000000000111100000000000000010010001000000000111011110000
00001111000100010000000000001110000100011111000011101111000100000001000000000000000111110001000011100000111100011111111111100000
11110001111100011111000000001111000111110001000011110001000000010001111100000001000100001111000111111111111100000000111100010001
00011110000111110000000000001111000000001111000111101111000111110001000111110001001011100001111100011111111100000000000000000000
00000000000000010000000000000000000000000000000000000000000000000000000000000001000000000000000011110000000000000000000000000000
00000000000000000000000000000001000000000001000000000000000100000001000100000001000000000000000000010000000000000000000000000001
00000000000100000000000000000001000000010000000000011111000000000000000000001111000011110000000000011110000000000000111100001111
11110000000100001111000100001111001011111111000000000001000100010000000100000001111100010001000111110000000000011111111100011111
00010000000000000000001000000000000000000001000000000000111111110000001000000000111111110000000100000000000000011111111000001111
00011111111111100001111111100000000011011111000100010011111111101110000000110001111100100010111000010001111111110000111100100010
00001111000011110000000011110001000100001111000100000000111100000000111100010000000100010001111100011110000000000001000100000000
11110000001000101110000100011111000100000000001000011110000000100001110111100001111111100000111000100000001111100010000000001111
00001111000000000000000111111111000100000000000100011111111111110000000000010001111100000000000000000000000000011111111100011111
00001111000000000000000000000001000100010001000011110000000000000000000100000000000011110000000000000001000000000000111111110000
11110001111100000000000100001111111100000001000000010010000100100001111111111110000111110000000100010000111100001111111100000000
00000000000000000000000000001111000000000001111111100000000100000000000000000000000000000000000111110000000000000000000100000000
00000000000000010000111100010001111100000001000011110000000100000000000011110000000000000000000011110001000000000000111100000001
00000010111100100010001011110000000100101110000011111110111100110011110100011110001000101111000000001111000000101111111111101111
00000000000011111111000000000000000111111111000100010001111100001110000000000001000100001111111100011110111011110011000100100001
11110000000100000001000111110000000100010000111100010000000011111110000100011111111100010001001011110001001000011110111011111111
00000000111100000000111000011111111000000001111100010000001000001111000011110000000000000000000000000001000000000000111000000001
00000001001011111111000100001111111111110001000000010000111100001101111100011111111111110001000000010000000100000001000000010000
00000000111100000000000000000000000000001111000111110010000000010001111100000000000100010000001000010000000000000001111100010010
00000001000000100000000000001111111100010000111111111111000100010000000000000000111100010000000011110001000000010000111100000000
00000000000000010010111100000001000100110000000011101111000000000000111100000000000100010000000000000010111100000000000011110001
00001111000111110001000100000001000000010000000011111111111111111111000100011111000000000000000000010000000000000000000011111111
11110001000000011111000000000000000011111111111000000010000100000000111100000000000000000001000100000001111100000000111000010000
00000000000000000000000011111111000100001111000100000000000000000000000000010000000100000001111111111110111100000001000000000000
00001111000011110000000000001111111100001111000000000000111100001111000000000000000000000000000000000000000000000000111100000000
11111111000000001111111100000000000000010000000011110000001000000000000000000000111111110000111100010000000111110001000011110001
00100000000111110001000111110001111000000000000100001111000000101101111000101111111100010001110111111111000100000011111100001110
11111111000111110001000100001111001011110000000111110001000000001111000100000010000000010000000000010000000000001111111100010000
11000000001011111111111100011111000100000001111100010001010000110000110000001111000000010001000100010000000111110011000000010001
00001111000011100001111011100000000011111111001000010001110100001111000000101111000100100000111011111111000011110000000100000001
00000000000011110000000011110001000000001111111100010000000000000000111100001111000100000000000000011111111100000000111100000000
11110001111011110000111100010000111100001111111100010001000111110000000000001110000100000000001011101110111000001111111100000000
00000000000000000000000000000000000000001111111111110000000000000000000000000000000000000000000000000000000000011111111000000000
00000000000000000000000000011111000100000000000000010000000011110000000100000000000011110000000011110000000000001111111000000000
00000001111100010000000000011110000000000001111100010000000000010000000000000001111100001111000111110000111100000000000000011111
00000000000000000000000000001111000000001111111111110000000100000001000000000001000000000000000111101111000000010000000000000000
11110010000000010000001000000001000000101111111011111111000000010001111100001110000000011111001011100000000000011111111111101111
11110001111100110000000000000000000000010001111000001111000000010001111100011111000000101110000100010000111100011111111100000000
00010001000000000001000100011111111100000000000011111111111100001111000011111111111100000000000011110000000100000000000100001111
00010000000000101110111100000000111100000001000000000000001000100010111011110010000000001111111000000000000000000011000100000001
00010000111100010010111100000001111100011111000000011111000000001111000000000000111100000000111111100000000111110000111111110000
00000000000100000000000000000000000000010000000011101111000000000001000000000000000011110001000000000000000100011111111000000000
00010000111100000000111100000000000011111111000011110001000111110000000011110001000100000000111111110000111100000000111100010001
00011110000111110010000000000000111100011111001000001110111100001111000100010000000100000001111100001111000100000001111111111111
00010001111000000011000011101111000000000001000011110001111100000001000000010001000000011111000011110010111100000000000000010001
00100001000111110000000111110001000011111111001011110000111000011111000000010000111000010000111000001111000100000001000100011111
00000000000100011111111111111111000000001111111111110001001000010000111100100000000000010010111100000001111100010010111100000000
00010000111100000000000100011111000000001110000000010000111111110000001011111111000111111111000111100000111100011110000100001111
00000000000011110000000000001110111100000001000000010000000000001111000011110000000000001111000111110000000000000000000000000000
00101111111100010010000011111111000000000000000100011111111111100001001000010010000100101111111111110001111000011111111111110001
00011111000111110000000011100001000000000001000100010000111100010000111000100000000000010001110100011110000000000011000100011111
11110000000011110000000100000000111100001111111011110001000100010000000011111111000011110001000111111111000011110000111100011111
10100001000000001110000000010000000111111111111000010001010100111110110000001111111100010000001000010001001011000100000000010001
00000000111100000001111100101111111000000001111111100000000100000000000011111111000000000000000111110000000000000000000011110001
00001111000000010000111111111110001000000000000100000001000000000000000000000001111100010000000000001111000111110001000000000001
00010000000000000000111100001110000000000000000000000001000100000000000000000000000000000001111100010000111100000000111000000001
00000000000000000000000000011110111100001111000000000000000100000000000011110000000000000000000100000000000000000000000100000000
00000001000000101111000000011111000100001111000000000000000000010001000011110001000011111101111100000000000000000000000111110001
11100001111100000000000000011111000000000000111100010001000100010000111000000000000000001111000111111111111100000000000100010000
00101111111111100000111100001111000011111111000000000001000011110000000011110010001000001111111100010000111011100001111100010010
00000010000000000001000111110000000000011111111011111111000100100000111100011111000000010000001000000000111100010000000000001111
00000000000000000000000000000000000000000000000000000000000000000000000000000000000000000000000000010000000000000000000000000000
00000001000100011111000000011111111100000001111100001111000100010000111100000001111111110000000011111111000100010001111100010000
00010000000000001111000000000000111111110001000000010000000000000001111111110001000011111111111100011111111100000001111100010001
00000001111100000000000100010000000000000000000000010000000000000000000111110000000000011111000111110000000011110000111100000000
00000000000011110000000000000000111100000001000011110000111111110001000000000000000011111111000000010000000000000000000000010000
00011111000000010010000000101111000000101111000100011101000011110001000111100001000100001111000000010001000100000000111011100000
11110001000111111111001000000000000100000000000000010001111100000000111100000000000100000000000111110000000000000000111100011111
00000001111100000000000100011110000000000000000011111111000011110000000111110001111100000000000000010011000100000001111111111111
00010001000100001111001000000000000011110000000011110000111000100001111000100000000111110001111100001110111100101111000100011110
11110000111000000001111100001111001000010000000000000001000000000010000000000001001000011101000100000000111100001111000000000010
00010000000111110001001000010001000000010000000100011111111111110000000111111111000011111111000000001111000100001111000000001110
00011111000111110000000000011111111100010001000000011111000000010000111100000000000000000000111111111111000100000001111111111111
00101111000000000010111111111111000000010000000100001111000000000001000100010001001000000001111100010000111000010000111111110000
00010001111100000001000000000001111111110001111100000000000000000000000000000001000000001111000000000001111100001111111100000000
11110001111100001111001000001111000011110000111100000000000000000000000011110000000011110000001000101111111100001111000100011110
11111111001000001111000100011110000100000000001000001111000000001111000011110000000011110000111111110000001011110001000000000000
00001110000100000000000111101111001011111111001100010001111111111111000100010001111100010000111011110001000111110001111100011111
00011111111100000000000000000001000000000000000011110000111111110001000000000001000100000000000011110000111000010000000000010000
00000000000011110000111100000001000000000000000000010000000100000000000000010000000000000001000011110000111100010000111000000000
00000000001100101110000100000001000100000000001000011110111100010000111111100000111111101111111100011111001111100000000000001111
00000000000000000000000011110001000000001111000011100001000000000000000100000001000100000000000011110000000000000000000000000000
00000001111100010001000000001110000000010001111100000000111100000010000000001111000100000001000011111111111100010000111100000000
00010000000111110000000000001111000000010001111100010000000011111111000100010000111111110010000111111111000000000000111100001111
11110001000000110000000100010000000100011111111100001110000000010010111111110001000000011111000000000000000100011111111111110000
00000000111100010001000100011111000000100000000111111110111100000000111111110000111100001111000000000000000000000000000011100000
11110001000000011111000100000000000000001110000000000000000000010000111100000000000000001111000000000000000011110010111100011111
11100001111111100010001000011111000100000000111100000010111111111110001000011101001000000000010100000000111100011101111100011111
00000001111100010010000000001110000000000000000011111111000000000000000000000000111100010000000011110001000100000000000000000000
00000000000000010001000000000000000100010001111100001111111100000001000000011111000100000001000011111111111100101111111111110000
11111111000000000001000000000001000000011111000100001111000000010000111100001111000100000000000000011111000100000001111011110000
00000000000100001111000100011111000000000001000000000000000000000000000000000000000011110000111111110000000000000000111100001111
00100000000000000000000000000000111000000001111111100000000100000001000011110001000111100001000000000001111100100000111100001111
00000000000011110000000011110001000011110000000011100001111111111110000100001111000000000001000100000000000000001111000100001111
11100000000000000000000000001111001100011111000011110001000000000000111100000000000100011101000100011111000011110000000000000001
00011110000111110011000011111111000011111111000100000001111100000000000000011111001000010000111011111110000000000001000000010000
00000000000100000001000000000001000100010000001000010000111100000000000100010001001000000000111111101111111100000001000011110001
11110000000111010000110100000000110100011110111011100001001000101101111000001101111111110010000100000000000111110011000000010000
00001101000000000001000111110010001111110001001100010000000011101111001000000010111100010000111000000001000011011111000000011111
00001111111111110000111100001111000111111110000100010001000011110000000000010000000000010000111111110000000000000001000100000010
00000000000000010001111111111111111100000000111100010000000000000000000000010000000000000001000011110000111100000000111000000000
00011111111100000010000011011111000100001111000000000001111100000001000000110000000100100001111111110000110100010000000000010001
00001111000000010000000111110000001000000001000000010001000011110001000000010001000100010000000011110000111100010000111000000000
11111111111111110000111100010000000000001111111100000000001011110001000011110001001000000001000100010000111100001111111111110001
11110001111100000000000100000000000000001110000011110000000000000000000000000000000000000000000111100000000000000000111000000000
00000000000000001111000000010000000100001111001000010000000000010001111100010001000000001110111111110000000111100010000100000000
00000000000000000000000000000000000000001111000000000000000000000000000000000000000000000000000000010000000000000000111100000000
11110010111100101110000100001111000100000000111111110000000000010010111100010000000000000000000000000000111100011111000000000000
00010000111111110000111000000001000011110001000111110001111100000000000000000001000100001111111111100000000011110001000000010001
00000000000000010000000011111111000000010000111111111111000100010000111100000000111100011111000011110001000000000000111100000000
00010001000000000000001000011111111100001111000011110000111100011111000000001111000000001111000000001111000000000001111000011110
00010000111100010000111100000001000000000000000011110000000100000001111111110001000100011111111111110000111100000001000000000010
00101111111111100010000000000000111100000000000011100001111111110001001000010000010000000000000000010000111000001111000100000000
11110001111100010000000000000000111100001111000111110000111100000000000000000001000000001111000000001111000011110000000000010010
00010001000000001111000011110001111111110000000000010001000000010000000000010001000000000001111100001111000000000001000000100000
00000000000011111111000000010001000011110001000111100000000000000001000111110010001111010000000000001111111000001111111100010000
00000001000000000001000000001110000000010001111100010000000011110000000100000000000000000000000000010001000000011111111000000000
00000001111100000000000100010001000011110001000000010001111111111111000111111111000000001111000111110000000011111111111100011111
11110011111100101110001011100001000111001111000000010010111100011110000000100010110001000000000111100001000011110001111001001111
00011110000111100001000000001111000000001111001100000000000000001111000100010000000111110000111011111111000100000010000000000000
11000010111100001110111101000001111011111111111111110001001000111110110111011110111100001110001100000000000110110011111000100011
11110001000111111111111100011111111000000000111000010000001100001111000000000000111011100010000100000001000000010000111100000000
00011111000011110001000111110000000000010000000100000000111111110000000000010000000111110000111111110000111100011111111111111111
11110001111011110000000000000000000000000000000011110000111100000000000000010000000100001111000100011111111111110000111100000000
11110000111100000000111100001111000100000000000000010000000000010010111000000000000100011111000011101111000000000001000011110001
00011111111111110001000111111110001000000000000000010000111100000000000100100001000100010000111100011111111000010000000000010000
11110000000000010000111100001111000000000000000000000000000100000000111100001111111100000000000111110001000111110000000000000001
00010000000100001111000100000000000011111111000100000001000000001111000100000001111100000001111100001111000000000001000000011111
11111111000100010000000111111110000100011111000011111111000000010000111100000000111100000001000000010001000000000001000011111110
11110000000000011111111100100000001000010000000000000000000100100010111111110001001000001110000000001111000111110000000011110001
11110001111000100000000100000000000100001111000000010001000000010010111100000000000000000000000000000000111100000000000100010000
00001111000000000000111000001111000000000000000100010001000000000001000000000000000100001111000011111111000000000010000000000011
11110001000011110010001011111111000100101111110111110000111100000000000000101110000000000001000100000000000100101111111111111111
00000010111000100001001000001111000100010000111100011110111100010010111000001111000100101110000000001111000000011111111011111111
11110000000000000000000000011111000000001111000000000000000000000000000011110000000000001110000100001111000000000001111100000000
00000000000111100001001000010000000000000001000111100001111111101110001000001110000011110000001000000000000111111111000000001111
00000001000000000001000100001111000000000001000011110000000000001110000100001111111000010000000011110001000111110000111100001111
11111111111100011111111100001111000011101111000000000001111100001111111100011111000100001111000111101111000011110001111100100010
00000001000111110000000100000001000011110001000011110000111100011111000000001111001000001111000100001100000000000000000000001111
00000010111100000000000000010001000000000000111111110000000000000000000000000000000000001111000111110000000000011111000000000001
00000000000000000001000000010000111100010000000011111111000011111111000111110000111100000000000000000010000100001111111000000000
00001111000100000001000011111111000100010000000000011111111100010000000000010000001000000000000000011110000000010000111111111111
00000010000000100000001011110000000111101111000011110001111100011111000000100001111000110001000000000001000000010000111100101110
00000001000000000000000000010000000000001111000011110001000000000000000000001111000000000000000111110000000000000000000000000000
11100001111000010000000000010001111011110000000011110000000000001110000011110000111000011111000111110001000111100001111100010001
00001111000111110001111100001111000100010000001000010000000000010000111100010000000100000000111011111111000111110010000011110001
00000000000011110000111100001111000000001111000111100000000100000000000111110001000000000000000011110000000000000000000100000001
00010000000111110000000000001111000000000001000000000000000000000000111100000000000100000000000000001111111100000001111100000000
11110000000000000000111100001111000100000000000000000001000000010001111100000000000100000000000000100000000000000001000000000001
00001111000100000000000111110000001011111110001000000001111111110000000100010001000000000000111100000001000111110000111000010000
00000000000011110001111100001111000000000000000000000000000100000000000000001111000111110000000011110000111100010000000000000000
00000000111100000000111100000000000000000000111011100000000100000000000000000000000100000000000100000001111000010000000100000001
11110001000000001111000000000000000100001111000000010000000000011111111100001111000000010000000100000001000111110001000100011111
00000000111100000000000000011111000000000000000000010000000000000001000011110000000100001111000100000001000000010000111111110001
11110010111111110000111100000001000011110001111111110001000100011111000000001111001000000000000100001111111000000000111100010001
00000000000111100000000111100001000000000001111000010000111100001111000000001111000000000010000111110000111100000000111100011110
11100010111100111110001100011111000000100000111000011101000000010010111111111111111100011110010000010000000000011101000011011110
00010001000000010010000100001111000000100001111011101110000000110001111000001110000000010000000000010000111100100000111111110000
00000010000000000001001000101111111100001110000000011111111000001111000011111111111100001111000111110001000100001111000000001110
00000000000000010000000000001111000100011111000011110000000100000001000000000000000000000000000000000000000000000000000000000001
11110000000000010000000100001110000000000001000011110000000000001111000100001111111100010000000100010001000111111111000000001111
11111111001000000001000000000001000100000000000000000000000000000000000000001111000100000000000100000000000100000000000000000000
00000000000000001111000000000000000000000000000000010001000100000000000000000000000111110000000011110000111100000000111000000000
00010010111100100000000000001110111100000000111100011111000000010000000000000000111000010000000011110001000100000001111000000000
00011111111000000010111111110000111100001111000011110010000000000001000100000010000100101111000011110000111000000001000000010010
00000000001000001111000000000000000000101110111100001111000100010001111100001111001011010000000000011111000000010000111111111111
11100010111000010001000011101111000100000000111100010000111100100000111000101111111000111111000000000001000000010001000000011111
00000000111100000000000011111110000111111111000100010001111111110000000100000000111100011111000011110000000111110000000100010001
00010000000100000000001000001111111111111110000000000000111111101111001000010001111111111111000100000000000000101110111100001110
11110001111111110000000011111110000011110000111000010010000100001111000000011111000000010010000100010000111100011111111000100000
00011110000011100011000100000000000100000001001000000000111111101110001100000001111100011111111111100000000011101111000000010000
00000000000011111111000011110000000000001111000011110000111100001111111100000000000100000000000011111111000000000001111000000000
00010000000100000001000011110000000000000001111100000000000100000000000100010000000000000001000000010001000000010000000000001111
00000001000000000001000000001111000000011111111111110000000000010001111100001111000100000001000100011111111100010000111111110000
00001111000011110001111100000001000100010001000000000000000100000000000000011111000000000000000000010000000000000001111100000001
11110001000000001110000000111111000000001111000111110001111100100000111011010000000011111111111111111111000011100001000100010000
00000000000000000000000000010000111100001111111111110000000100000000000011110000000011110000000011110000000000000000111100000000
11110000000000000000000100000001000111111111000100010000000000001111000000000000000000001110111100001111000111110001000111110000
11110001111100010001000100001111000000010001000000010000000000000000000000000001000011110000000011110001000000001111000000011111
00000000000000001111000000010000000100000000000011110000000000010001111100000000000000001111000000000001000000001111111100000000
00000001111000010000001000001111000000010000111011110000000000100000111000001110000100100000000111110000111100100001000011110000
00010000000000000001111100000000111100001111000000010000001000000000000000010001000100001111000000000000000000000001111100010001
00000000000011110001000000011111000000001111000000010000111100000000111100000000000100001111000100001111000000000000000011110001
00000010000000100000000111110000000100000000111100000000111100010000111100010000111100010000000100000001000000010000000000011111
00000001000000000000000100010000111100001111000000010000111100000000000100001111000100000000000100001111000000001111000000000000
00000000000000000000000000001111000000000001000000010000111111110000000100000000000011111111000011110000000000000000000100000000
00000001000011111111000011110001000011110000000000010001000000000000000000000000000000000000000111111110111100000000111000010000
11010000000111010001001000001111001100000000111100010011000011011110001000001110111100000010001000000001000100001110111100001110
00101111111011100011111011100000000011110001000100000011000011110000000100010001001000101111000000010000111000000001111100010010
00100001111100000001111111111111000011111111000100000001000000011111000000000001111100101110111000010000000011110011000000100001
11100001000000110000000011100000000100000001111100000001000000100001111000101111111000101111000011110001111100010000000000000000
00010000111100000000111100001111000011100001000111100010111111110000001000000010000000011111000000000001000011110000111100100010
11110000000000001111111100001110000100001111000011110001000100010000111111111111000100000000000011100000000100000001111000000000
11101111000111101111111100000000000100011111000000010010000100011111111111111111000111110001000111110000000111100001000100001111
00101111000111100010000111110001000000001111001100010000111111101110001100000001111000010000111100010000000111100000111100011111
11110001111111111111000100000000000011110000111100010001000100011111000011111111000011110000000100001111000011110000000100000000
11101111000111111111000011100000000111110001000111110010000100011111111100010000111100100000000000010001000111010011000000100010
00011111000000000000000011111111000011111111000111100000000011110000000100010001000000000001111100000000000000000000000000000000
00000000000000000000000000000001000100001111000000000000000000000000000000011111000000000000000111110001000000000000111111110001
00000000000000000000111100000000000000000001000011110000000100000000000000000000000000000001000000001111111100000000111000000000
00000000001100011110000100000001000111111110001111111111111100000000000011100001111111010000111100010000001111100000000100011111
00000001000000011111000100110000000011111111000000010000000000010000111111110001000000001110111100010001111100001111111100000000
00000000111100010000000100000000000000010001000000000001000100010001000000000000000000001111000000000000111100000000000000010000
00111111000011100000111100000001000111100001000100010010111111111111001000000010001100011110111100001111110111010001000000100010
11110001000000110000000000010000000000100000000000001110000100010010111100000001000000000000000011111111000100101111000011110001
11110000000000010000000100000000000000000001000000001111000000000000111111111111111100010000000000000000000011110000000011110000
11110001111000000000000000000001001000001111000100010001111100000000000000011111001000011110000011111110111100000010000100100010
11100001000111110000001100001111001000000000000011100001111111111111000100101110000011110001001100010001000000001110111100001101
00000000000000000000000000001111000000010001000000011111000100000000000100000000000011110001000111100001000000001111000011110000
00000001000000001111000000010001111100000001000000000000000000000000000011110000000011111111000000010001000000000000111100010000
00001111000100010010000000011111000000101111000111101101000000010001111100000000000000010000000011100000001000000001111111010000
11101110001011010010000111111111001100011111000100000010111111011101001000011111000000000010000111110000000111111111000000011111
00000001111111111111111100000000111011100000111100000001000000001111000011111111111100001110000100011111111111110010000000100001
00110010111111110000000111010000111011000001000100000010111100011110000000100010111000101111110011111111111011110011000101001111
00100000000000000001000000000000111100001111000000011111111111110010000100000001001011111110111100001110111100011111111000000000
11100000000000010001111100011111000100101111000111111111000100000000111100001111111100011111000011110010001011110001111111110001
11110001000000010000000000110000000000001111000011101111000100001111000011010000111100001110000100000000000100000000000000000000
11100000001011111110111100001110111111110000111100010010000100011111111111111111000000001111000100010000000011110000111100010000
11110000000000000000000000001111000000001110000000000000000000000000000000000000000000010000000011110010000000000000111100000001
00000001000000001111000100010000000111110000000011100000111100010000000011110000111100000000000000011110000000000000111000011110
00000000000000000000111000010001111100010000111100000000001000000001000000000000000100000000000100010001000000011111000000000001
00011111000000000001000000000000000000001111000011110000111111110000000100000001000000000000000000010001000000001111111100000000
00010000000000000001000000000001000000011111111100000000000100000000000000000000000000000000000000100001111100010000111100000000
00000000000100000000000000000000000100001111000000010000000000000000000000000000000011110000000011110000000000000000000000001111
00000000001000010000000000010001000100000000001011101110111100100000111011010000000011111111111100001111001111100001111100000000
00010000111100000000000000000001000000000001000011110000111111110001000100010000000100011111000111110000000000011111000111110000
00000000000100000000000000000000111100010000111111110000000100010001111100001111000011110010000100001111111100100000111100001111
11100001111100101110000100000001001000000001000000000001000000010001111000010000000000010000000111111110111100011111000100001111
00000001111100010000000100010000000000001111000011101111000000010001111100000000000000010000000000000000000000000000111100000000
00000001000000010000000100000001000000000001000011111111111100000010111100000000000000011111000011111111000000001111111100000000
11110011111000000011001100001111000100100000111011111111111000010001000000101101000100000000001000001111111000111110000111111110
00010000111100000000111100011111000000001111000011110000000100000001000011110001000100000000111111110000000000000001000100000001
00000000000000000001111100000000000000011111000000001111000111110000000000000000111100000000000000010001000100000000111011110000
00000000000000010000000100001110000000001111000000001110000000000000000000000001000011110010111111100000000000001111000011111111
00001111000100000010000000010001000000101110000100001100111100010001111111110000000100001111000000010000001000000000000111100000
00000001000000000001000000000001000000011111000011111111111100000001111100010000000000000000000011111111000000010000000011110000
00000000000011110000000000001111000000001111000000000001000000001110000111111111000000010000000100010000000100000000000100000000
00100001111111110001000000011111111011110001111100010000000011111111000111110000000111110000000100001111111100010000000000010000
11110001000000001111000000011111111000001110111011110000000100011111111111111110111111110010001000000001000000000000000000001111
11110000111100010001000000010000111100000001000011110000000000000000000011111111111100011111000100000011001011110000111000000010
11110000000100000000000000100000000100000001000100011110000011110000000011100000111100001111000000010001000100000000000011110000
00000001111100010000000011100000000111111111111000000010000100000000000000100001000100000001000100010001111000101111111000010000
00010000000111110001000111111111000000001110000111111111111100010000000000011111000000000000111100001110000000000001111100001110
11110001000111111111000100001111111111111111111100000000000000100001000011100000000011110000000100001111000000000001000000010000
11110000000100001111000000000000000000001111111111110000001000001111111100000000111100000001000000000001000100000000000100001111
00000000000000000001000000000000000000000001000011110001000000000000000000010000000100010000000011110000111100010000000100000000
11110000000000001111000011111111000100010000000011100001000000010000000000000000000000000001000011100001000000000000111111110000
11110000000000000000000000000001000100001110000011110000000000000000000000000000000000010000000011110000000000000000000011110000
00000000111111110001110100001111110100000001111000000001000100000000000000001111000100000000000100010000000000000000111100000010
00000000000000000000000000001110000000001111000011110001000000000001000011110001000011110000000000010001000000001111111000000001
00000001111100010000000000000000000000000001000000000000000000010001111111110000000000000000000100010000000000000000000100000000
11110001111000100000000111111111000100000000111100001111111100010010111100000000000100001111000111111111111100001111000011110000
11110001111100100000001011111111000100010000111100001111111100010010111100000000000000101111000100001111000000011111111111111111
00011111000100000000000111110000000000000001000111100000000000000000000000000001000000010000111000000000000111111111000000000000
00000000000000000000000000000000111100000001000011100000000100000001000000000000000011111111000000010000000000010000000100000000
00000000111100011111111100010000000000001110000011110000001000000001000011110001000000001111111100000000111100000001111000000001
11101111000111110001001000000000000100010000000000000000000011111110001000001110111100000001001011110000001000001111000111111110
11100000000000010000111100001111000100010001111100001111000000010001111100010000000100000001000111100000111100101111111111110001
00100000000111110010000011111111111111101111001011100000111111111111000100000001000000010000111011110000000100000001111100000000
00000011111000100001001011111111000000000001111100001111111000010001000000011111111100101110000111110001000000011110000000001111
00010010000000001111000100010001111011110001000100010001111100001111000000000001111000000000000000000001000000000000111100101111
00001111000100010001111100110000000000111110111111111110001011110010000111010001000111101111000100000010000100011111111011010001
00000001000000000001000011111110111100000000000011110000000000011111111000011110111100100000000100010000000100000001111000000000
11110000111100010001111100011111111100011111000100000000000100001111000111110000111100001111000000010011001011110000000000000001
00000000000011111111000000001111000000000000111100010001000100100000111000001110000100000000000000011111000000000001111000001111
00001111000100010000111111111111000011110000000000000001000100001111000000000010111100000001111000010000000011110010111100000001
00010000000000000000000100001111000011110001000100010000111111110000000100000001000000001111000000000001111100001110000000010000
00000000000000001111111111111111000000000000000000000000111111110000000000010000000100010000000011111111111100000000000100010000
00000000111100000000111111111111000000001111000000010001000000000000000000010000000000010000000011110001000000000000111100000001
11111111001000001111001000100000001000000001001100000000000000000000000111010000000111101110000000001111001011100000000100000000
00000000000100000000000000011111111100010001000111110000000100001111000111111111111111110001000000000001000000000001000100000000
11110001111111111111111100000000000011110000111111100001111100000000000011111111000100000000000100001111111100001111000000000000
11110001000100101110000000111111000100000001000100001111000100100001111011100001000011010000000000001111001011110001111100000000
00000000111100001111111100001111000100010000000011110000000000010001111100000000000100011111000000001111000000000000111100000001
00000000000000000000000000000001000000000000111111110000000000000000000000000000000000000001000000010000000000000000000100000000
11110001111000110000000011100000000000010000111000001111111000100011111000010000000100101111001000001111111100011110000111111111
11110001111100101111000100000000000100011111000000011111111100010010111100000001111100101111000011101111000000001111000011111111
00000000000000010001000100010001000000100000000100011110111100010001111111110000000000001110000100001111000100000000111011100000
00000001000000000000000000011111000011110000000000010000000000000000000000000000000000001111000100010000000000000001111100000000
11110000000100000001000011111111000000010001111111110000000000000000000000011111111100010001000111110001000100010000000111111111
11110000000100000001001000010001000000011111111111111111000011101111001011111111111011110001001000010001001000001110000011111110
00110010000011110000001000000000111111011111001000010001110100001101000100001111000000001111111111111111000011100001000000111110
00000010000000011111000111111110111111100000111100010001000100011111111100000000111000000001000000010000000100000001000000101111
00000000111111110000000000100001000000000000000000000000000011100000001011100000001011101110001011100001111100001110000011110000
00000000111100000000000000000000000011110000111100010001000000000000000000000000000000000000000100010000000000000000000000000001
00001111000000000000000000011111000000000000000111110000000000010001000011110001000000001111111100010000000011110001111000000001
00000001000100000001111100010001110100011111111111111111001000011110111011111100111100010001000111110001001011110010000011110000
00010000000011110001000000000001111100010001111111110000000100000000000011111111000111110001000100001111111000010000000000001111
00010010111100101111001000001111111111100000000011110000000011111111001000000010111000011111000000010001000011111111000000100000
00000000111011110001111000001111111100000001111100010001000000000000000000000000000100001111000100011111000000000000111100000001
00000000000000000000000000010001000011111111000111110000000000000000000000000000000000001111000111111111000011110000111100010000
00001111000011110000111111111111000000001110000000010000000000001111000000000000000000000000000000000000000000000001000000000000
00010000000000010001000111111111000000010000000011111111111111110001001000010001000100000000111100010000111100101110000000000000
00001111000000001111000111111111000100001111000111111111111100000000000000010001000000010000111100010000000100000000000100011111
00011110000011110010000111110000010011110000001011110001111111100000000100010001000000011110111100001111000011110001111100010001
11110001001000011111000000101111000100010001000100011111111100010000111111100000000011110000000011111111001011100001000000000000
00000001111100000000000000001111111100001111111111110000000100000000000000000000000000000000000111110000000000000000000000000000
11111111000100011111000100000000001000001111000100010000000000000001000100000010000100001110000000000000000111110000000000000000
00000000000000000000000000000001000000000010000000010000000000000000000000000000000000000000000000000000000000000000000000000000
11100010111000110001000011100000000000010000111000011111111000100011111000101110000100101111001000001111111100011110000011111111
00010001111100000000000100000000000100000001000111110000111100000001000000000001000100010000000011111111000000000000000000000000
00000001000000010001000100001111000100100010111100011110000000100001111000001111000000010000000000011111111100011111111111110000
00010000111111110001000000001111111100000001000011111111111100000000000000000000000000010000000000000000000000000000111100001111
11110000000100000010001100001111000100011111000100011111111011110000000100011110000000000000001111110001000100011110111111111101
00000000000011110000000000000000111100000001000011110001000000001111000000000000000011110000000000000000000000000000000000001111
00000000000000000000000000000000000100000001000000000001000000010000000000000000000111110000000011111111000000000000111000000000
11110000000011111111000000010000000100010000000000010001000100010001111100001111001111111111000111101110111100000000111000000000
00001111000111110001111111111110111100101111000000011111000000001111111100011110000000000001111100001111000000000001000011111111
00000000111100000000111100011111000000000001000000010000000000000000000011110001000000001110000000010000000000000000111100010001
11110000000100011111000100000000000000000001000000000000000000101111111111110000000000000000000000000000000111100001000100000000
00000000000111110000000000010000111100001110000000001111000000001111000011111111111111110000000100011111000100000000000000001111
00000000111111110000111100001111111100000001000000010000000111110000000111110001000011110000000100000001111100001111000000000000
11111111111100000000111100010001000000000001000011110000000111110000000000000000000000011111000111110000000100000000111100000001
11100000000100011111000000000000000100000001000000100000000011110000000000000000111111110001000111111111000000001111111000000000
00010000000111110001000111111110000000001111000100001111111100001111000000011111000000010001111000011110000000000001000000011110
00010000000000000000111100000001111100000001000011110000000000011111111100000000000000000000000000001111000100000001111100000001
00010000000000000000111100000001111100000001111100000000000111110000000100010000000111110001000000000000111100011111111111110000
00011111000000000000000100000001000100001111000000010000111100000000000000010001000000000001000000011111111100011111000000001111
00000000000000000000000000000000000000001110111111100000000000000000000000001111000011110000000011110000000000000000111111110000
11110000000100001111000100000000000100001111000000010000111100010001111111111111000111110000000011111111000000000000111100001111
00000000000100011111000100001110000100001111001000001111000000000000000100000001000011100000000000010000000100000000111100001111
00000010111100000001000000010001111100001111111100010000000000011111000011111111111000011110000100011111000111110001000011111111
00000000000000000000000000001111000000001111000000000000000000000000000000000000000000000000000011110000000000000000000100000000
00010000111100000000111111110001000011110000000000000001111100000001111100010001001000011111000011111110111111110001000000010010
00000001000000000000001000000000000100000000111111110000000000010001111100001111000100000000000100000000111100010000000000001111
00001111000000000001000000000000000000001111000111111111000100000000000000000001000000001111000000010000111100000000000100000000
00000001000000000001001000011111000000011111000000011111110100000000000000011110000100000000001011111111000000011110000100001110
00001111000100000000111100001111000000011111000011110000000100000000000100000000000111110001000000000000000000000000111100000001
00000000000000000001000100001111111100000000111111110000000000001111000100001111111100000000000100000001000000000000000111111111
11111111000011111111111100000000000100010001111100010010000000000001111100100000001011110010000111111110111100000000000100000000
00010000000100010000000000001110111100000001111100000000001000000001000000000011111111110010111100000001000000010001000000000000
11100011111000110010000100000000000000011111111100001101111100110000110100011110111000111111000100000010001000000001000011111111
00010001000000000000000000010000111100001111000000000000000000000000000000000001000011111111111100000001000000010000000000010000
00000000000100010001000000101111000000110001111111111100000100000001000011100000000011100000000000000000000000101111111011010000
00011111000000000000000000000000000011110000000100000010000000000000000000100001000000010000111111110000111100000000000000010001
00000000000000000000000011111111000000000000000000000001000000000000000000000000000000010001000000001111000000000000000000010000
00000001000000000000000100011111111111111111000000000000000100001111000011100000111000001110000011110001000111100010111000011111
11111111001000001111000000011111001000010001000111101111000000000000000000000000000011110000000000000000000111110000000000000000
00010000000111110000000100000000000000011111000000000000000100001111000000001110000011110001111111110000000000010000111100001111
00000001111111110000000100000000111100000000111000010001000000010000000011111111000111110000000011111111000011110000111100010000
00000000111100000000000000000001000000000000000000000000000100000000000000000001000000000000000011100000000000000000111000000000
00000000000100000000000000100001000000010000000000001111000000010000000011100000000011111111000011110000001000000000000011110000
00001111000000000001000011111110001100001111000100000000000011110000000000010001111100010000111111110000000000000001000000000001
11110000000000001111000100000001000100001111000000010000000000000001000011110000000011110001000100010000000000000000000100001111
11110001000000011111000100110000000011110000000000010001000000010000111111010000000000001110000011110000000111100001000000010000
00000010111111110000111100010000111000000000111011110001000100010000000000001111000000001111001011110000111100100000000111110001
00000000000000000000000000010000111100001111111100010000000100010000111111111111000000000001000111110000111100010000000000000000
00101111000011110000111100001111000111100000000011110001000011111111000111110001001000000000111100101111111011010001000000010010
11110010000000111111000100001111000100000000000011111111000000100001111000000000000000011111000011111111000100011111000000001111
11111111000100000000000100000000000000001111000011101111000111110000000111111111000100000000000100010000000011110000000100000000
00010001000011110010001000010000111100001111000000010000111000001110000111111110000000000000000100000000000111110000111100011110
00000000000000010000111100011111111100000001000000000000000100010000000000000000000000000001000011110000000000000001111100000000
11110001000011110001001000000000000000010001000000011111000000001111000100001111111100011111000100010010000100000000000011111110
00010001000100100000000100010001111100010000000011111101111100000000000111100000111111110000000111110010000100011111111111111111
00010001111100000001000000001111000011110000000100000000111100001111000000010001111100011111111111111111000011110001000100100000
11010001111100110011000011111111000001000001000100011101111100101111111000011110110101001110000011110010001111100001000011011111
00000000111100000000111100001111000011100001111111110000000100000000000011110000000000000000000011110000111111110001111100000001
00010011111111111111001011100001111010110001000111110010110000101101000000100010110100100000111000011111000011100011000001001110
00010001111000000001000000100001000000001110111100000000111111110001000111111111001000001101001100001111111100011101000000000000
00001111000100000000000111111111000100011111000111100000000000000000111100010000000100010001111100011111000000000000000100001111
11110000000000000001000000100001000000000001000100001111000011111111000011101111111100011111000100000001000111100000000000000000
11110000001000011110001011111111000100000001000011110001000011110000000100010001111111110001000111110001000000010000000000011110
11111111000100000000000100001111000100000000001011110000000000001111000000000000000000000000111111111111000111100001000000011111
00001111000011110000000011110000000000001110000000010001111111111111000100100001000100000000000011110000111111110000000000001111
00000000000000011111000000010000000000000001000011110000000111111111000100000001111100000000000100000000000100000000000000010001
00000000000000000000000100001111000100000001000111110001111100000000000000000001000000000000111100010000111100000000111100010000
11111110000100000000000011100000001100000000000000000010000100000000000100010001111100000000000000010001000111100001000000000010
11110000001000011110000100110001000111110001001011111110111100100000111011100001000011101111111011111111001011110010111100011110
11110001111100010000000000101111000100001110000011110000000100010001111111100000000000011111000000010000000011110000000000010001
11110001000000101110000100101111000100000000000011110001000000010001111111110010000011111101000011110000000011110000000011110001
00000000001000010000000111111111000100011111111111110000000000010001000000010000000000000001000000000001000000100000000000001111
11110010110100101111000111110000001000000000111111110001111100100010111000010001000100101111000000000000111100101111000111110000
11110001111100100000000000011111000000000001111111101111000000010001000000000001111100101111000000011111000000000000000100000000
00010001000100000000000100001111000011110001000011111111111000001111000000001111000100000001000011111111000000000000111000101111
00000000000000000000000000010000000000000000000011111111000000000000000011110001000000000000000011110000000000000000111000000000
00000000000000000001000000001111000000011111000000011111000000000000000100010000000000010000000111110000000000001111111111110000
00000000111100010000000000010000000000000001000000010000000000001111111111110000000000001111000000010000000011110001111100000000
00010001111100001111000100001111000011001111000100100000111100001111000100000000000011111110000000001110111111110000000000100000
00010000000000000010001011100001000011111111001000000000111011111111000100100001111000100001111111110000000100000001000100011111
00011110000111110001111111110001111100011111000011110000000000000000111100011111000100000001111111110000111100010001111111111111
00000000000000000000000000000001000000001111000000010000000000001111000011111111000000011111000111110000000100000001000000000000
00011110000100000001111100100000000000011111000111110000000011100001001011110001000100001111000000000001000000011111000011110001
11100001000000011110000111110000000111100000000011100010000100001111000000000001111000000001000000010000000111110000000000100000
00011111111111110001111111111110000000010000111100010000000111110001000100000001000100000001000011110001111100011111000000000000
00010000000000000001000011110001000000000001000000010000000000000001000000010000000100000000000011101111111100011111000000000000
00001111000111110000000011111110000100100000000100011111000000000000000000011111000100000000000000001110000000000000000111111111
00101111000111110010001011110000111100001111001000011111111011111110001000000000111000011111000000000000001011100000111100011110
00010000000000000000111111110001111100000000000000000000000011110000000000010000000000000000000000001111000000010000000000000000
00001111000000000000111111110000000000011111000011100000000000000001000000010000000100010000000000000001000000000000000000000001
00001111000111110000000000011111001000001110001111110001000011100000000111110001000100001111000000010000000111111111000000010001
00000000111111111111000011111111000000010000000011100001000000001111000000001111000000000001000011110000111100000001000000000000
00000000000100011111000100000001001000000001000100001111111100010000111100000001000000000001111000001111000111110010000100011111
00000000001000011111000100011110000111110000001000011111111100010000111111110001111111100000111111111111001111100001000000011111
11110001111100011111111100100000000011110000000100000000000100100000111000000001000000011110111100011111000111100010000100000001
00000001111000010000000111110000000100001111111000010001111100010001111111111111000100001111000000000001111100010000111100011111
11010001111100011111000111101111001000100001111111110000111100100001111100101111000100011111001011111111111100011111000000001110
00000000000000000000000000001111000000000000000011110000000000000000000000000001000100000000111100000000000000000000000000000000
00000001000100000000000100011110000000001111000011110000111100000000000011110001000011110000000011111111000100001111000000011111
00001111000000000000111100001111000000011111000000010000000000000001000000000010000111111111000000011111000000010000111100000000
00011111000100000000111000001111111111110001000000010001000000001111000000000000000011110001111100000000000000010000000000010000
11110000000000000000000000000000000000000001000011111111000000010000111111111111000011110000000000000001000100000001111111111111
00000001111111110000000000000000000011010000000100000000111000000000000100000000000000001110000000101110000011110001111100011111
00011111000100011111111100001110000000001111111111110000001111110001000100000011000011110010111111110010000000100000111100000001
11110010111100010000000100011111000011110000000011100000111100000000000011110000111100011110000100010001000000000000111100000000
00000010111111110000111111111111111111111110111100010001000000001111000011111111000000010000000111100000000000000000111100010001
11110000000100000000111100101111111100011111111111110000000100010000111111111111000111101110000011111110000011110001111100000000
11111111000100001111000000100000000100001111001000000001000011110001000111100001000111111111000000000000000111110000111100000001
00000000000011110000000000000001000000001111000111110001000000010000111100000000000000010000111111100000000011110001000000000000
11110001000000000000000000001111000100000001111100011111000000000010111100010000001000000000000000000000000000010000000011111111
11101111000100001111000000011111000100010001000111110000000000000000000000000000000011111110000000011110001011100000000000000000
00000000000100000000000100010001000100000001000000001111111100010001000000001111000100001111000000001111000000010000111000000000
00000001000011111111000000001111111100001111000000010000000000000000000000001111000100000000000100001111000000000000000000001111
00010000000000000010111111110000111100010000000000010000000011110000000100010000000100000000000000000000000000010000000000000000
00000000000111110000111100000001111111110001000011110000000000001111000000000000000000000000000011111111000011110001111100000000
00000000000111110001000011110000000011110000000100000001111111111111000000011111000100010001111100000000000000000001000100010000
11110000001100101110001000010001000100000000000000001111000000100001111100000010111111100001000011110000001000000001111100001110
11110010110111100001000100101110111111111110111111110010000100001110000011111110000100011111001000010000111100000000000000010001
11110000111100001111111100000001000100000000001011100000000100010001111000010000000100011111111100011111000111100001111100000000
00000001111100010010111100000000111111111111111000010001000000010000000000010001000000010000000111110000111100010001000100100001
00000000000000011111000000000000000000001111000011100000000100000000000000000001000000000000000011110000000000000000111000000001
00000000000000000000000000001110000000000000000011110000000000010000000000000000000000001111000000000000000000000000000000000000
11110000111000001111111100000001000000000000111100010001000000000000111100011111001000000000000111111111111100000000000000010001
00000010000000001111001100001110000011110000000000000000111100001101000100001111111000000000000111111111000111110000000000011110
00000001000000010000000000010000000000000001000000000000000000100001111111110001111100010000000011111111000100000001111000000000
00010000000000000000000100001110111100000001111100010000000100000000000000000000000011110000000011110000000000011111000011110000
00010001000100100001001000000000111100101111000011111101111000000000000100001111111100000000000100010000000100011110111111101110
11100001000100011111001011100001001111110000000000010010111100010000111100100000111100010000000100011111000000000001000000101111
00000000000000010000000000000000000100011111000000011111000000000001000000000000000000000000000000000000000000011111111011110000
00000000000000000000000000000000000000011111000011110000000011110000000100001111000011110001000111110001000000001111111100000000
00000001000100000000000000000001111111110001000111110000111100001111000000000000111100010000000011110000000111110000111000010000
00100000000111110001000111101110111000000000001011111111111100001101000100011111111000000001111000011111001000000011000100001110
00011111000011110001000011100000111111110001000000010001000000001111111100010000111100010001111100010000000000000010000100010000
11110000000000000001000000001111000100101111111100001111000111110000000011110000111100000001000000000000000000001111111111111110
00010001001100001111000111111111000011111110111100000000000100011111000000010000111111110010111111111111000100010010000100011110
00101111000100000001001011111111000011110000001000010000111111111111001000000000111100000000111100011111000000001111111100011111
00000001111100000001000011110001000000000000000011110000000000011111111100001111000100000001000000010000111100000000111100000000
11110000111100001111000100000000000100001110000000000001000011110000000100000000111100000000000000010001000011110000000000010000
11110001000011110000111100001111000000001111111100000001000000010000111100001111000000000000000011111111000000000000111100000000
00000000000100000001111100000000000000000001111100010000000100001111000000001111111100000010000100010010000000000001000000000001
11110001000100001110000000100001000111111111000100000000111100100000111011010000000011111110000000001111000111100001000000010000
11110000111011100000111100011110000000000001111011110001000111110000000100011111000000010000001000010001111100011111000000000000
00000000000000000000000000000000000000000001000000000000000000000000000000000000000000000000000011110000000000000000000100000000
11110001111100000000000000000000000000011111000000000001111100000000000000001111000100001111000111110000000000001111111000000000
00010000000000000000000000001111000000001111000000010000000000000000000000000000000100000000000011111111000000010000111100000000
11110001111100010001001000001110000000001110000000000000111100010000111100010000111100011111000011110001000000001111111100001111
00000010000000000000000100000000111111111111000000010000111100001111111100001111000000000000000000001110000000001111000000010000
00010001000100000000000000001111000011111110000100000001111100001111000100000001000111110000000000011111000011110001000000011111
00000000000000010001111111110000000000010001111111110000000100010000111100010000111000010001111111110001000100000001000011110000
00000000000000000000000000000001000000001111000000010000000000000000000000000001000000000000000000000000111100000000000000000000
11111111000011110000000011111110000100011111000000000010000000000000000000011111001011110000000100011111111100000000000111110000
00000000111100010000111000010001000000000000111111100000000100000001000011110000000100001110000111110001000000010000111111110010
00000001111100010001111100100000111100000000000000011111000000010000000011110000000000001111000100000001000000000000000011110001
00010001000000000000000100011111111100000001000011100000000000001111000000000001111100001111000011110001000011110000000000010000
00000000000000010000111100000001000100010000111100000000001000000001000000000001000000010001000011100001000000010000000000000001
00000010111100000001000100011111111111111110000000000000000000011111000011101111000000001110000111111111000000000000111000011111
00001110000111110001000011111111001000001110001000000000111111101111001000010000000000010001111100000001000111110000111100000000
00010000111100000001000100001111000000001111000000000000000000000000000000010000000000000000000011110000000000000000000000011111
11110000000011110000000000010000000100000001000011110000000000000000000011110000000100001111000100010000000000000000111000010001
00000000000100000000000000011110111000011111000000000000000100000000000000001111000011110001000100000001000100010000000011110000
00001111111111110000000000000000000000000001000100010001111111110000000000010001000000010000000000010000000000000000000100000001
11110000000111111111000000000001000100000000000011110001000000011111000000010000111100010001000011100000000011110001000000010000
00000000000000000000000000001110000000010001000000000000000000000000000011110000000111111111000111100000000100001111111100000000
00001111000011110001111100001110001000011110000100000000000000000000000000001111000000010000000011110001000111110001111100000000
11110001000111111111000000110000000000001111000000010000000000100000110111010000000011111111000011111111000011100010000000010000
00000001000000101110000000100000000011110001000100000000111100000001111111110010000000001110000000011111000011100001000100010001
00000000000000001111000100000001000011111111000000000000000000000000000000000000000000000000000000000000000000000000111100000000
11110000111100000000000000000000000100000001000011110001000000000001000000000000000000001111000000000000000000000000111100000001
11110010111100010000000100000001000000010000111100001111000000010001000000000000111100001111000111110001000000010000000011111111
00000000000000000000000000001111000000000000000011110000000000000000000000000000000000000000000000000000000000000000111100000000
00000000000100010000000100101111111100000000000000000000000000010000111111111111000011110000000000001111000000001111111100010000
00010001111011101111000100001111000011011111001011110001110100001110000000000000001000001110111100011110110111010011111100100000
00011110000111110000111111111111000000000000000111110001000011110000000100010001000100000001111100011111111100000001000100010001
11110000000000010001001000011110000000010001000000011110111100000000000011110000111100010000001000010000001000001111111111111111
00011111000000000000000000000000000000000001000011110000000000000001000100010000000111110000000011111111111100000000000011110000
00100010000100011111000100010000111011100000000000011111111100101110000011110000111111110000000000000000001011100001111000101111
11110001111100010000000000000001111100000000000011110000000000010000000000001111000000011111000111110000000000000000111100000000
00000000000100000001000100000000000000010001111111111110000000010000000000000000000011110010000000010000000000011111111111111111
11111101001000010001000000010000001000110000001000001110000011100001001011110001000100000000111100010000000100011111111111010001
00000010111100100000000100011111111011110000111111110000000000001111000111110000111100001111000100010001000100001111000000010000
00000000000100000000000000001111000000001111000000010000000000000000000000010000000100000001111111111111111100010000111100001111
11110000000000000000000100011111000000001110000000010000000000000000000000000000000011110000000000000000000100000000000100000000
00000001111100010000000000011111111100000001111011110000000111110000000111110000000011110001001011100001000000011111111000001111
00001110000111110001000011111111000000000001001011110000111100001111000000011111000000000001111000011111000000000001000100001111
00011101111111100001111111100001000000000001000100010001111011111111000000100001000100100000111100010000000011110001000000010010
11100001001100101100001000010000001011111111000000000000000100011111000000000000110111100010000111110001001000000001000100011110
00000000000000000000000000001111000000001111111100010000000000000000000000010001000000000000000000010000111100001111000100000000
00001111111100000000111111100000001000000001000000010001000000000000000000010000000000011111111100010000000000000001111100010001
11110000001000011110000000010000000100001111001000011111111100100000111111110001000011101111111111111111001111100010000100011111
00010001000000011110000000100001000011110001000111110000111100010000000011110010000011111110000011111111000011110000000000010000
00000000000000001111000000000000000100000000000100010000000000000000000000010001000100001111000000011111000011110000111100000000
00000001111100000000000100001111000000001111111100000000111100000001111100011111000000000000000000011111111100010000000100000000
00000000000011111111000000000001111100000000000000010000000100010001111100000000000100001111111111110001000011111111111100000000
00000000000000000000000000000000000000001111000000000001000100000000000000000000000000000000000011110001000000000000111000000001
11110000000000000000000000011111000000000001111011110001001000100001111100001111000011110001000100011111111000010000111100000000
00000011000000000000001100001111111111101110000011110000111000011101000111111110111000001111000111110000000011110000111100101101
11110010000000100010001011110000000100100000111100001110111100100000111100011110110100110000001000010000001000010000111111101110
00010000000000000001000000001110111100010001111111110000000000001111000000000000000011110001000100000010000000010000111011111111
00010001111100000000000100000000111111101111111111100001111100001111000000000000000000000000000000000000000000010000000000011111
00010000000011110001000011110000111111111110000000000000111100011110000000010000111000010001111100001111000000000001000000101111
00101101000111100011111000000001111000010001000000000001000111111111000100001111001011110000111111111110111100000010111100000000
00000000111100000001111111111111000000000001111100010000000000001111000000011111000000010000000011111110111100000000111100000001
11111110001000011111111100000001000100011111000100001111001000000001000000000000000011110000111100010000000000000000111111110001
11111111001000011111000011100001001000000001000000000010001000000000000000100010111100000010111100000001000000010001111100010000
00001111000000000001111100000000000100001111000100010001000011010000001000000001000000010000000000000001000000001111000000000001
00000000000000000000111100001111000111111111000000010001000000000001111100000000000100001111000011111111111100010000111000000001
00000000000000000000000011110001000100001111000100010001000000000000000000010001000000000001000011110000000000000000111100010001
00001111001000000000000100000001000000010001001011110000000000011111111100011111000100000000111100010000000111110001111000001111
00000000000000000000000000001111000000000000000000000000000000000000000000000000000000000000000000010000000000000000000000000000
00000000000000000000111100001111000000001111000011100000000100010000111100000000000000000001000000010000000111110001000000000001
00001111000100000000000011110000000100001111000000010001000011110000000000010001000000000001111100000000000000000000000100000000
00000000000000000000000000000000000000000001000000010000000000000000000000000000000000000000000000010000000000000000000100000000
00000000000100011111000000000000000100001111000111101111000000010000111111110001000011110000111100000000001011110010111100001111
00001101000111111110001011110000001000010000010011101111111111111111000100010000000000001110111111111110001011010000000100001110
00010001000100000000000111110000000000000001111100000000000000000001000000001111000000000010000100011111000000010000111100000000
11110000111100100000111111110000000100001111000000000000000000010010111100010001000000010000000000000000111100010001000000000001
00000000111100000000000000000000000000000001000011110000000100000000000011110000000000001111000000010000000000000001111100000001
00010000000000000000000000001110000000010001000000010000000011110001000111110000001000001111000100000001111100011111000111110000
00000000000000010000000100001111000011110001000000010000111100000000111100001111000100000001000000001110111100000000111100010000
00001111111100000001111100001110000000011111000111110000000000000001000011110001001000000000111111110000000000000000111000000001
00011111000000000001111100011111111100001111000111101111000100000000000011110000000000000000000000010001000000000001000011110001
11110000000000000000000100001111000011111111000000010000111111111111000000000000000000000000000100000000000100000000000000000000
00000010111111111111000100000000111111000000000111110001111000001110000000010000000000001111000011111110000011110010000000101111
00000001000100010000000100000000000000000001000011110000000000011111000000010000111100010001111111100001000100000000111000000000
00000001000000000000000100001111000000011111111111110000000000001111000000001110000000000000000111110001000000000000111000000000
00100010000011111111000100010000111100000000000000010000000000011110000000000000111100001111000000000000000100000001000000011111
11100011000011111100000100010000000011100001111100000011000100111111110100001101000111110000001100000000111111110010111001000000
00000001111100000000000000010000000000001110111111110000000000000001000111110000000000001111000111110001000000011110111000000000
11110000000100000010000000001110000000100001111000010000000000010000111000001110111100000001000000011111000000010000111111111111
00011111000100000001000000001111000000000000000100010000000011110000000100010000000000000000000011100000000000010000111011110000
00000000000000010000000000001111000000000001000111101111000000000000000100000001111100000000111111100001000000000000000000000000
11110000000000001111000000010000000000001110000011110000000000010000111100000000000111110000000100001111000000000000111100000000
00000000000000000000000011111111000000000001000111110000111100000000000000000000000000000000000011110000111100000000111100000000
00000000000000000000111100010000111100001110000000010000000100001111000000000000111100000001000000010001000111110001000000000001
11110000000000000000000100010000000011101111000100010001000100011111111100000000111100010000111111110001000111100001000000010000
11100000000000001111000000000001000100011110000000000001000000010001000000000000000000000001000000010000000000011111000011110001
11110001000100000000000100000000000000011111110111100000000100000000000100011111000100000001001011110000111100101111000011111111
00011111001011110000001011111111111100000000000111110000111111100000001000010001000111110001111111110001111100000000111100001110
00000000000011110000111100000000000000011111111111110000000100001111000000001110111100000001000100000001000000000001000000000000
00000000111111110000000000000000000000001111000000010000000000000000000100000000000000001111000100000000000000000000111000000000
00000000000011010000000111111110000111111111000000000010111000001111000100100000000100000000000100011111000000000000000100111110
11110000000000010000000000001110000000010001000000001111000000000001000011110000000000011111000000010001000111110000111111110000
00000000000100000000000100000001000000000000000000011111000000000000000000000001000000000001000000010000000100000000111000000000
00000000000000000000000000010000000000000000000011110000000000000000000011110000000011110000000111110000000000000000000000000000
11110001111100010001000000010000000000010000000000000000000000000000000000001111111100000000000111110010000100001111111100000000
11110001111100010001000100010001000000011111111100011111000000000000000011110000111100011111001100000000000111111111000011110000
00000000000000010001000000010001000000010001000011101110000000000001000011110000000000000000000000000001000100010000111111110000
00010001000000110001000000001111000000001111000000001110111100000000000000000001111000101111000000010010000100000000111111110000
11111111111100010011111000010001000000110001111111111110001011111111000011111111111100101111000011110010001000000000111011010010
00000000000100000000000000000000000000010000000011111111000000000001000000000000000011110000000000000000000000010000111111110000
00000000000000000000111000100000000000000000000000000001001011110000000011100000000011111111000111110000000000000000000100000010
00000000000111110001000000000001111100010001000000011111111100001111000000001111000011110000000000011111000100000000111111111111
00011110111000000001111111101111000111110001001111110010111011110000001000100010000000111110111011110000000011010010000100100011
00011111000011110010000100010001000000000001001000011111111111111110001011110000111100011111000100010000001011111111111111111111
00000000000100010000000000000000000100000000000111110000000011110000000100000010111100000000111111110001000100001111000000000000
00010000000000000001001000001111000111110000001000010000111011110000000100010000000000011111111111110000000011111111000000011111
00000000111111110000111111110001111111111111000000000001000000000000000000010000000100000000000000011111111100000000000000000000
00001111000100010000000100001111000100001111000100010000111111110001000100000010000011111111111111110000000000011111000000000000
00000000000100010000000100101111000111111111000100011111000000000000000011110001000000010000000000000000000011110001111111110000
00000000111100000000111100001111000100011111111100010000000011110000000000000000000100000000000000010000000000010000111111110001
00000001111100010000111100001110111011111111111000010001001000000000000100000000000000010000000111110001000000100000000000010001
11100001111111110000000000011111111100010001111000000000000000000000111111111111000100011111001100010000000000000000000111110000
11110000000100000000111100011111000100011111000000000001000000010000000011111111000011110000000100001111000111110001000100000010
00000001111100000000000000001111000000000000111111110000000000000000000000000000000000010001000011111111111100010000000000000000
00010000111111111111111100010001000000000001000011100001000000010000111100000000000100000000111111110000111100001111000111110000
11101111000100000001001011110000000100100000111111110000000000000000000000001110000000010001001000000000000100001111000011101111
00000001000100000000000100010000000011110001000011111111111100001111000000000000000000000000000111111110000000001111000000001111
00000001000011100000000100001111000011110001000000010001111100011111000000001111000100001111000100001110111111110000000000011111
11110010111100100010001011110001000100010000000000001111111000101111111100011111111000101110000100000000001011110000000111111111
00000001111100010000111100001111111100000001111100010000000100000001000000000001000111110000000011110000111100010000000000000001
00100001000100010000000011111111111111110000000000001111000000000000000000000010111111110000111111110001000000000000111100010000
00000001111100011111000100000000000000000001000000000000000000010000000000000001000000000000000000010000000000000001000000010000
00010000000011110000000000010001111100000001000000010000000000000001000111110001000111110000000011111111111100001111111100000000
00001111000000000001000000011111000000010001000011111111000011110000000100000000111111110001000000010001000111111110111100000000
00100000000000000001111100011111111100100001111100001101000100000010000011110000000111111111111100000000000000011111000011100001
00000000000000000000000000001111000100000000000100010000000000000001000100000001001011111111000011111111111100011111000000010000
00000000111111110000000011111110000000000000000000000001111100000001000000000001000100010000000011111110111100000000111100010001
00010001000000011111001000010001111111110000000111111111111100000000000011110000111011111111111111111111001000000000000111111110
00000000000000000000000011111111000100000000000111110000111100010000000000010000000000010000111100001111000011110001111000000000
00011111000111110001001011110001000111111111001111110000111011101110001100010001111100011111111100001111000111101111000100011111
00011111000000000000111100000001000000001111000111110000000000001111000000010000000000010000111011111111000000000000000100000000
00000000001000011111001000010000000100000000000100001111111100000000000100000001111111100000000011110000000100011111111100001111
00001110111011110001111111010001000111101110000111110011111100001111000000110001000100100001111111110000111011110001000000100001
11111110000000000001111011110001001000010001000100010000000000000001000000010000000100000001000000001111000000010000111011100001
00010000000100011110000000010000000100000001000100100001000000100000111111110010000000000000111011110000000111100001000100000000
11111111000100010000000011111111001000000001001011100000000000000001000000010001000000001111111011111111000111110000111100000001
00000000000100000000000000001111000100010000000100010001000100001111000000001111000000000000000000010001000111110001000100000001
11100000111100011111000011110000000100000001000000010001000000010001000000000001001000001111001000010000111100000001000000010001
00000001000000000000000000001111000000001111111111110001000100001111000000000000000000000000000011100001111100000000000000010000
00000001000000000000000000001111000000000001000000000001111100010000111100000000000000000000000011110000111100000001111100010000
00000000111100000000000000000001000000000001000000010000000000001111000000000000000000000000000011101111000000000000000000010000
00000000111011100000000000011111000011100000000111110001111000000000111100000000001000001101000000001101111011100011000000100010
11011111001111100001001100000000001100100001111100010010000011011101001100011110000011100010001100000001000100011101000100001110
00000001111100010010111100001111111100010000000000011111000000000000000000000000111100010000000000000010000111110001000011100001
00000001000011110000000000001111111111101111111100010001111100101110111100001101000000000000000100001101000011110001111100101111
11110000000011010001001011111111000100000001000000010010111100001110000000101101000100010000000111111111000011110001000100011110
00010000000000000001111100001110111100010000111100011111000111110000000100001111000011110000000100010001000000011111111111110000
11110000000000010000111111111111000100001111111100010000000100000000111100000000000011110010000011100000111100010000111111110001
00000001000011110000000000001111000011110001000011110001111100011111111100011111000000000000000000001110111100000000000000010000
00001111000000001111111100000000000100001110000100010001000100000010000111110010001011100000111100000001111100001111000000000001
00010001000011110001000011111111111100010000111011110000000000010001111000011111000100000001000011111111111000100000000011111111
00000000000000010000000000011111111100001111000000010000000011111111000111110000111100001111000100000001000100000000000000000000
11110000000100000000111100000001000100000000000000010001000100000000000000000000000011110000000100001111000011110000000000000000
00001111000111100001000100000001000111111110001111111111111100001110000000001111000000001111111111111111000011110001000000011110
00000000000011110000000000000000000000000001000000000000000000000000000000000000000000000000000011101111000000000000000000010000
11110000001000000000111000011110000000001111111111100001000100010000111100001111111100000001000000000001001000000001111100001111
00011100111111010010000011100001001011100000001100000010110011111110001000110001001001000000111011110000000011010011000000100001
00000001000100011111000100100000000111111111000000011111111101001111111011100000000011100000000100011111001011110010000100011110
11110000000100010000000100001111000100000001111100000000000011110000000000010000111100000000001011100001000000001111111100001111
00000000000000000000000000000000000000011111000011110000000000000000000000000000000000010000000100010001000000001111111011110000
00000000000100000000000000000000001000010000000000000001000100000000000000001111111111110000000111110000000011110001111100000000
00000000000000000000000000001110000000011111000111110000000000000000000011110000000000001110000000000000000100000000111000000001
00000000000000001111111100000001000000001111000000010000000100000000000000000000000000000000000011110000000000000000000000000001
00000001111100100010000100011111000000100001000000011110111100010010111000001111000100010000000000001111000000010000000011100000
11110001000000000000000000010001000000000001111100000000000100010000000011110000111111110001000000010000111100000000111100000000
00000001000000010001000100001111000000001111000011111111111100001111000000000000111100010000000100000001001000000000111100000000
00000000000000101111111000010001000000010001111111111111001100010001111111110001111100000000111111110001000000000001000000000010
00000001111100010010111100010000111000100000111100001110000100011111000011111111111000010000001011100001000111100001111111100000
00000000000000010000000011110001000000000000000011110000000000000000000000000000000000000000000011100000000000000000000000000000
00010000000000000000111100000000111111110000000011110000000100000000000000000001111100000001111100010000000000000001111100000001
00011110000011110001111011101111000000010000000000010000000011110001000000100000001111110001111000001111111000011111000011110000
00000000000100000000000000000000000000010001000000001110000011110000000100000001111111110000000000000000000100001111000011110000
00110010000100000001001000000001111011111111111000001111000000001111000000001111111011110001000011111110000000010000111000011110
00001111000100000000000011111111000100001111000100010000000011110000000100010001000111110001111111110000000000000000000000000000
00000000000000000000000000000000000011111111000111110001111111110000000100010000000000010000000000001111000011110000111100010000
11110001000000000000000000010001111100000000000011110000000100001111000011110000111100001110000100010001000111100001111100010000
00000000000000100000001011101111000111111111000000000000111000001111000000100001111000100000111100010001000100000001000000011111
00011111000111110001000100001111000000001110010000000001111000001110000000011111000000010000110111111111000111110001000000001111
11010001000111101111000000010001000111110000111111110001001000110000110100001110000100001111001000011111000011100010000100010001
11110000000100001111110100010000111100000000111111110000001000011111111111111111111100000000000011110000001000000001000000000001
00010010111100000001000000000000111000000001111011110000000000010000111100011110000000010001000100000000111100100000000000000000
11110000000011110000000000001111000000001111000011110001000000000000000000000000000011111111000000010001111100000000000100010000
00010000111100000001000000000001111100001111111100000000000100000000000000000000000000010001000000000001111100010000000000000000
00000000000000000000000000001111000000000001000100000000000000000000000000000000000000000000000011110000000000000000000100000000
11110000000000000000000100011111000000011110111100000000000000011111000100001111000000001111000100001111111100000000000111110000
11110000111100000000000011111111000000000001000000010000000000000000000000000000000000000000000000000000000000000000111100010000
00000000111111111111000000011111111100001111111111110000000000010000111111110000000100001111111111111110111100000000111100000001
00000001111000010001000000000001000000010000111000001111000000010010111100011111000000011111001000010000111100010000111111111111
00000010111100000000000100001111000000001111000000010000111100001111000000000000111111111111000000011111000000010000000100001111
00010001000000100000000000000001111000000001000000011111000100100001111100000001111100000000111111100000000100000010111100001110
00010000000000010000111000001111111100001111000111110000000000000000000000000001111100001111111100010010000111110001000100000001
00000000000000000000000000001111000011110001000000010000000000000000000000000000000000000000111100000000000000010000111000000000
