00000001000000100000000000000010000000101111111100000010000000001111111011111110
00000000000000011111111000000010000000111111111100000000000000100000000111111111
00000010000000011111111000000001111111110000000100000010111111110000000100000000
00000001111111101111110100000000000000010000000000000010111111111111111100000000
00000011000000101111111111111011000000100000001111111101111111010000001111111010
11111110000000001111110000000011000000111111110111111111111111010000001100000100
11111100000000111111101000000011000000101111110011111111111111001111111111111110
11111111111111000000000111111001000000101111100100000010000000011111111011111110
11111101000000101111111100000001111111010000001011111100000000100000001011111100
00000011000000100000001011111100111111010000001111111101000000001111110000000010
00000001111111010000001111111100111111010000010000000100111111010000001111111001
00000011000000011111110100000011000000110000001011111111111111011111101011111101
00000000000000111111111011111111000000111111101100000011000000110000001011111011
11111000111111100000000100000011000000000000000000000100000000111111110111111100
00000010111111000000000111111100000000011111101100000010111111101111110000000001
00000001000000010000000000000010111111111111111100000001000000000000000111111110
00000010000000100000000111111000111110111111110000000001000000010000000011111101
11111110111111000000001100000011111111001111111111111100111111000000001111111100
00000001111111110000000000000000000000001111111000000000000000011111111100000010
11111110111111000000001100000001111111000000001011111101000000100000001111111011
11111111111111101111111011111111111111100000000000000001111111100000000000000000
11111111111111010000010011111100000001000000010011111101111111110000001111111011
00000001111111101111110100000011111111000000001111111011000000101111110100000011
11111101000000000000000111111111000000000000000000000001000000000000001011111111
11111101111111110000000011111110000000111111111100000000000000001111111011111111
11111101000000011111101000000010000000010000000000000001111111001111110000000010
00000011111111110000000100000001000000000000001100000001111111110000001100000011
11111111000000001111110111111111000000100000001000000011111111101111111100000011
00000001111111110000001011111110000000101111110111111110000000011111111111111111
11111110000000100000001011111111111111101111110011111101000000011111101000000011
11111101111111101111111000000000111111011111111011111110000001000000010000000100
00000001000000001111111100000010111111010000001011111110000000011111111100000000
