0100010010001010001110000100010010011001
1000100101001000100010000101010100111000
0000000000000000000000000000000000000000
0011100000111000001110000011001010010011
1000011010000100101110011001101000110101
0100100001001000011001011000100011001001
1101001110101101011010111001110001111000
1111000000000000000100001111000000000000
1001001010000011001001010100100000101000
1101110011001011110010111001100101110111
1000101110000101011010011011011111101011
0010001010000010100000110100001010000010
0100010101001000100010011110010000111000
1001100010000101100111001001010100110101
1000011000001001100001101010010101001010
0111011110010110101011001100101010001100
0010100000100011001010000100100010000010
0011001110111000001110000100100100100011
1000101010111010100110100111010101011001
0000000000000000000000000000000000000000
0100100101001001100001011011010110101010
0000000000000000000000000000000000000000
0011000110000011001100111000100010000010
0101100010000100101001011001000001011001
0000000000000000000000000000000000000000
0001001100101000001000110011100010001000
1000100001100101100001101001111001001010
1000001010000011001100111000001110000011
0010001000110100010010011000100100111001
0100100101001000100001001000100000110100
1000111001000100001110000100110000001001
1000011001101001100110001100011010000101
