11111111000000011111011000111000110010100010001011111011000001011110000000010001
00001101111011110000001111111101000010000001000111100110000000000001111100010101
10000000100000000010001110001111001000011000000010000000111100111001011111011101
00000000000010000000010111000100110110001110011100000011111111100001101011110111
11111111111111000001100011111101101111101110111111110001111110110000110100010000
00000010000000011111001100110010111011010001001111110100000000010000101011111101
00000000000000001110101100001011111101101110110011100111111111010010011011111110
00000000111101000010000111000001000101011110001111110001000000000010101111111011
00000000111101011110111011111011001011000000010100001101111111100011010011101110
00000000000000111110001000111000110000110001111011101000000000101111010011101101
10000000001000111000000001001101100000001010011110010001100000000100001111000111
11111110000000100000111011100001001101001110011011111010000000010001010000011001
01111101101101100100010110000000010010011000000010110000010111111001010110000000
00000001000010011111011100011111001101100000001111110101000000011110000000000010
00000001000010010001101011100111001000000000010100011001111111101111000100010011
10000000100001101011111010111100100000001011111101001010010110111011000101010110
11110001100000001000000010000000100000001110011000110011100000001000000010000000
00000010000000111101111001000000111111111110011011110011111111001110000000000000
10000000011001011100110100111010101111111000000010000000101101111000000010000000
00110010001001110011111011010110100000001000000010000000011101111000000010000000
01011110001011011000000010000000101111001100000001010101100000001000011110001100
00000100000000011111001111101010000111100000000111110010000000111100111011111111
10000000111000001001000100111100100000001101001110000000001100101000000001111110
11111110111111101110100111101000001101000010010000000111000000111101000111101010
00110000100000001000000011100010110100101000000110000000100000001100000011001001
11111110000001110001111100110110111110010000001000000001111110111101000000000111
11111111111101101111101011001001101110111110010111101010111101010010010100000011
11011001100000001110000000100000100000001000000011011011100000001001010110000000
01101011000110100111001010000000001101111000000001001011100000001101000110000000
10000000100000001000000011010001110101010100001001111010100000110111100000110001
00000000111111100010001011001001000111010001010011110110000000001111110000000101
00000001111111001111111011100101110001101111011000010001000000001101010011111111
