0000000000000001000000000000000000000000000000001111111100000000000000000000000100000001000000000000000100000000000000000000000000000000000000000000000000000000000000000000000000000001111111110000000011111111000000010000000000000000000000000000000000000000
0000000000000001000000000000000000000000000000000000000000000000000000000000000011111111000000000000000000000000000000010000000100000000000000010000000000000001000000000000000000000000111111110000000111111111000000011111111100000000000000000000000000000000
0000000011111110111111110000000000000000000000000000000100000000000000001111111111111111000000001111111000000000000000010000000000000000000000010000000000000000000000100000000000000000111111110000000000000000000000000000000000000000000000000000000000000000
0000000011111111111111110000000000000000000000000000000000000000000000000000000011111110000000001111111100000000000000000000000000000000111111110000000000000000000000000000000000000000000000001111111100000001000000000000000000000000000000000000000000000000
0000000000000001000000010000000000000000000000000000000000000000000000000000000111111110000000000000000100000000000000001111111100000000000000101111111100000000111111100000000000000001111111110000000011111111000000000000000000000000000000000000000000000000
0000000000000000111111110000000000000000000000000000000000000000000000001111111000000000000000000000000000000000000000100000000000000000000000101111110100000000000000100000000100000001111111110000000100000000000000000000001000000000000000000000000000000000
0000000000000001000000000000000000000000000000001111111100000000000000000000000000000000000000000000000100000000000000011111111100000000111111110000000000000000111111110000000100000000000000000000000011111111000000100000000100000000000000000000000000000000
0000000011111110000000100000000000000000000000000000000100000000000000001111111111111111000000001111111100000000000000000000000000000000111111110000000000000001000000001111111011111111000000000000000100000000111111101111111000000000000000000000000000000000
0000000000000000000000000000000000000000000000001111111100000000000000000000000000000000000000000000000000000000000000000000000000000000000000010000000000000000000000101111111100000000111111110000000011111111000000000000000000000000000000000000000000000000
0000000000000001000000000000000000000000000000001111111100000000000000000000000111111111000000000000000100000000000000011111111100000000000000000000000100000000000000000000000111111111000000000000000011111110000000001111111100000000000000000000000000000000
0000000011111111000000010000000000000000000000000000000000000000000000000000000000000000000000001111111100000000111111111111111100000000111111110000000000000000000000100000000000000001000000000000000000000000000000000000000000000000000000000000000000000000
0000000000000001000000010000000000000000000000000000001000000000000000000000000000000010000000000000000000000000111111101111111100000000111111111111111011111111111111111111111100000010000000000000000100000000000000010000001000000000000000000000000000000000
0000000000000000000000000000000000000000000000000000001000000000000000001111111100000000000000001111111100000000000000001111111100000000111111111111111000000001000000000000000000000000000000011111111000000001000000000000001000000000000000000000000000000000
0000000000000001111111110000000000000000000000000000000100000000000000000000000000000000000000000000000000000000000000010000000000000000000000010000000000000001000000011111111111111111111111110000000100000000000000100000000000000000000000000000000000000000
0000000011111110111111110000000000000000000000000000000100000000000000001111111100000000000000000000000000000000000000000000001000000000000000010000000000000001000000101111111100000000111111110000000100000001111111110000000000000000000000000000000000000000
0000000011111111000000000000000000000000000000000000000000000000000000001111111111111111000000001111111000000000111111100000000100000000111111110000000000000000000000001111111100000001000000001111111100000010111111110000000100000000000000000000000000000000
0000000000000001000000000000000000000000000000000000000000000000000000000000000000000001000000000000000100000000000000000000000000000000000000000000000000000000000000000000000000000000111111110000000011111111000000010000000000000000000000000000000000000000
0000000000000000111111110000000000000000000000000000000000000000000000001111111111111110000000000000000000000000000000010000000100000000000000010000000100000001000000000000000111111111111111110000000111111111000000001111111100000000000000000000000000000000
0000000000000000111111110000000000000000000000000000000000000000000000001111111000000000000000000000000000000000000000000000000000000000000000100000000000000000000000000000000011111111111111100000000000000000000000010000000000000000000000000000000000000000
0000000011111111000000010000000000000000000000000000000000000000000000000000000011111111000000001111111100000000000000000000000000000000000000000000000000000001111111110000000000000000000000000000000000000000000000000000000000000000000000000000000000000000
0000000000000000000000000000000000000000000000000000000000000000000000000000000011111110000000000000000000000000000000000000000000000000000000010000000000000001000000000000000011111110111111110000000000000000000000011111111100000000000000000000000000000000
0000000000000000000000000000000000000000000000011111111100000000000000000000000000000001000000000000000100000000000000000000000000000000000000011111111100000001111111110000000100000000111111110000000000000000000000010000000000000000000000000000000000000000
0000000000000001111111110000000000000000000000001111111100000000000000000000000000000001000000000000000100000000000000010000000000000000000000011111111100000000000000000000000100000000111111110000000011111111000000010000000100000000000000000000000000000000
0000000000000001000000000000000000000000000000001111111100000000000000000000000000000000000000000000000000000000000000000000000000000000000000010000000000000000000000000000000000000000111111110000000100000000000000001111111100000000000000000000000000000000
0000000011111111000000000000000000000000000000001111111100000000000000001111111100000000000000000000000000000000111111110000000100000000000000010000000100000000000000010000000000000010111111111111111111111111111111100000000000000000000000000000000000000000
0000000000000001000000000000000000000000000000000000000100000000000000001111111111111111000000001111111000000000000000001111111100000000111111111111111100000000111111110000000000000000000000011111111000000001000000010000001100000000000000000000000000000000
0000000000000001000000100000000000000000000000000000000100000000000000000000000100000000000000000000000100000000000000000000000000000000111111111111111000000000111111111111111100000001000000101111111100000001000000000000001000000000000000000000000000000000
0000000011111111000000000000000000000000000000000000000100000000000000001111111111111111000000001111111100000000000000010000000100000000000000010000000100000001000000101111111111111111111111100000000100000001000000011111111100000000000000000000000000000000
0000000000000001000000000000000000000000000000000000000000000000000000000000000011111111000000000000000100000000000000010000000000000000000000000000000000000000111111110000000011111111000000000000000111111111000000011111111100000000000000000000000000000000
0000000000000000000000000000000000000000111111110000000000000000000000000000000000000000000000000000000100000000000000101111111100000000000000000000000000000000000000000000000011111111000000000000000011111111000000010000000000000000000000000000000000000000
0000000000000000000000010000000000000000000000000000000000000000000000000000000000000000000000000000000000000000000000000000000100000000000000000000000100000000111111111111111111111111111111110000000100000000000000000000000000000000000000000000000000000000
0000000000000000111111110000000000000000000000000000000100000000000000000000000011111110000000001111111100000000000000001111111100000000000000010000000100000000111111111111111100000000000000000000000100000000000000000000000000000000000000000000000000000000
0000000000000000111111110000000000000000000000000000000100000000000000000000000111111111000000000000000100000000000000011111111100000000000000000000000111111111000000000000000100000000000000011111111111111111000000010000000000000000000000000000000000000000
0000000000000000000000000000000000000000000000000000000000000000000000000000000000000000000000000000000000000000000000000000000000000000111111110000000000000001000000001111111100000000000000000000000000000000000000000000000000000000000000000000000000000000
0000000000000000000000000000000000000000000000001111111100000000000000000000000011111110000000000000000100000000000000000000000000000000111111110000000100000001000000111111111111111111000000010000000000000010111111111111111000000000000000000000000000000000
0000000011111110000000010000000000000000000000001111111100000000000000000000000011111110000000000000000100000000000000010000000100000000111111110000001100000001000000111111111111111110000000000000000000000010000000011111110100000000000000000000000000000000
0000000000000000111111110000000000000000000000000000000000000000000000000000000000000000000000000000000100000000111111010000000000000000000000000000000000000000111111110000000100000000000000011111111111111111111111100000000000000000000000000000000000000000
0000000011111111111111110000000000000000000000000000001000000000000000000000000011111110000000001111111100000000000000000000000000000000000000100000000100000000000000011111111111111111111111110000000100000010000000011111111100000000000000000000000000000000
0000000000000001000000000000000000000000111111110000000000000000000000000000000000000000000000000000001000000000000000011111111100000000000000000000000000000000000000010000000011111111000000001111111100000000000000011111111100000000000000000000000000000000
0000000011111110111111100000000000000000000000000000000100000000000000001111111100000001000000000000000000000000111111111111111100000000111111110000000000000001000000010000000011111111000000001111111100000001000000000000000100000000000000000000000000000000
0000000000000000000000000000000000000000000000000000000000000000000000000000000000000001000000000000000000000000000000000000000000000000000000101111111100000000000000000000000000000001111111100000000100000000000000000000000000000000000000000000000000000000
0000000000000000000000000000000000000000000000000000000000000000000000000000000100000000000000000000001000000000111111111111111100000000000000000000001000000001000000010000000000000000000000000000000100000001111111110000000000000000000000000000000000000000
0000000011111111000000010000000000000000000000001111111100000000000000001111111100000000000000000000000100000000000000010000000000000000000000000000000000000000000000001111111100000000111111110000000100000000000000011111111000000000000000000000000000000000
0000000011111111000000010000000000000000000000000000001000000000000000000000000111111110000000000000000100000000000000011111111000000000111111110000001000000000111111110000000111111110000000100000000000000001000000011111111100000000000000000000000000000000
0000000011111110111111110000000000000000000000000000000000000000000000001111111100000000000000000000000100000000000000010000000000000000111111100000000011111111000000010000000111111110000000101111111100000010111111110000000000000000000000000000000000000000
0000000000000000111111110000000000000000000000000000000000000000000000001111111100000000000000001111111100000000000000010000000000000000000000010000000000000000000000000000000000000000111111110000000011111111000000010000000000000000000000000000000000000000
0000000011111111111111110000000000000000000000000000000000000000000000001111111100000000000000001111111100000000111111110000000000000000000000010000000000000000000000010000000000000000111111110000000100000000000000000000000000000000000000000000000000000000
0000000011111110111111110000000000000000000000000000000100000000000000001111111111111111000000000000000000000000000000000000000000000000000000000000000111111111000000010000000011111111000000010000000000000000111111110000000000000000000000000000000000000000
0000000000000001000000000000000000000000000000000000000000000000000000000000000000000000000000000000000100000000000000010000000000000000000000000000000000000000111111110000000000000000111111110000000111111111000000011111111100000000000000000000000000000000
0000000000000001000000010000000000000000000000000000000000000000000000000000000111111111000000000000001000000000000000010000000100000000000000000000001000000001000000101111111111111110000000000000000100000001000000001111110100000000000000000000000000000000
0000000011111111000000000000000000000000000000000000000000000000000000000000000011111111000000000000000000000000000000010000000000000000000000000000000100000000000000010000000011111111000000010000000100000000000000001111111100000000000000000000000000000000
0000000011111111111111110000000000000000000000000000000100000000000000001111111100000000000000001111111100000000000000000000000000000000111111110000000100000001000000100000000000000000000000010000000000000010111111100000000100000000000000000000000000000000
0000000000000001000000000000000000000000000000000000000000000000000000000000000111111111000000000000000000000000000000010000000100000000000000000000000000000001000000011111111111111111000000000000000000000000111111111111111100000000000000000000000000000000
0000000000000000000000010000000000000000000000000000000000000000000000000000000111111111000000000000000100000000111111110000000000000000111111110000000100000001000000001111111111111111000000000000000000000000111111111111111100000000000000000000000000000000
0000000000000001000000000000000000000000000000001111111100000000000000001111111100000000000000000000000100000000000000010000000000000000000000000000000000000000000000000000000111111111111111110000000000000000000000010000000000000000000000000000000000000000
0000000000000000111111110000000000000000000000000000000000000000000000000000000000000000000000001111111100000000000000001111111100000000000000000000000100000000000000001111111100000000111111110000000100000000000000011111111100000000000000000000000000000000
0000000011111110111111110000000000000000000000000000000000000000000000001111111111111111000000000000000100000000000000000000001000000000000000010000000000000000000000000000000000000001000000011111111100000001111111110000000000000000000000000000000000000000
0000000000000001000000000000000000000000000000000000000100000000000000000000000011111110000000000000000000000000000000001111111000000000111111110000000000000000000000011111111111111111000000011111111100000010111111111111111100000000000000000000000000000000
0000000011111111000000000000000000000000000000000000000100000000000000000000000011111110000000000000000100000000000000011111111100000000111111110000001011111111000000100000000011111111000000010000000000000001000000001111111100000000000000000000000000000000
0000000000000000000000000000000000000000000000000000000000000000000000000000000011111111000000000000000100000000000000010000000000000000000000000000000000000000000000010000000011111111111111110000000000000000000000000000000000000000000000000000000000000000
0000000000000000111111110000000000000000000000000000000100000000000000000000000000000000000000000000000100000000000000001111111100000000111111110000000000000000000000000000000011111111000000000000000000000001000000000000000000000000000000000000000000000000
0000000000000001000000000000000000000000000000001111111100000000000000000000000000000000000000000000000100000000000000000000000000000000000000000000000000000000000000000000000000000000000000000000000100000000000000000000000000000000000000000000000000000000
0000000000000000000000000000000000000000000000000000000000000000000000000000000111111110000000000000000100000000000000000000000100000000000000000000001000000001000000010000000011111111000000010000000000000000111111101111110100000000000000000000000000000000
0000000000000000000000010000000000000000000000000000000000000000000000001111111111111111000000001111111100000000000000001111111100000000000000000000000000000000000000011111111100000000000000000000000000000000000000000000000000000000000000000000000000000000
0000000011111110111111100000000000000000000000000000000100000000000000000000000100000000000000000000001100000000000000111111111000000000111111110000001000000000000000010000000111111101000000001111111000000010000000100000000000000000000000000000000000000000
0000000000000000000000000000000000000000000000000000000000000000000000001111111100000001000000000000000000000000000000000000000000000000000000011111111100000000111111110000000100000001000000000000000000000000000000000000000000000000000000000000000000000000
0000000000000001000000100000000000000000000000001111111100000000000000000000000011111111000000000000000000000000111111100000000100000000000000000000000100000010000000011111111100000000000000010000000000000000111111111111110100000000111111110000000000000000
0000000011111111000000010000000000000000000000000000000000000000000000000000000111111110000000000000001000000000000000010000000000000000111111110000001000000000000000011111111111111111000000010000000000000010000000001111111100000000000000000000000000000000
0000000011111111111111110000000000000000000000000000001000000000000000000000000000000000000000000000000100000000000000001111111100000000000000000000000100000000111111110000001011111111111111111111111100000000000000101111111100000000000000000000000000000000
0000000000000000000000010000000000000000000000001111110100000000000000000000000011111111000000000000000000000000111111110000000100000000000000010000000100000001000000011111111011111111000000010000000011111111111111110000000000000000000000000000000000000000
0000000011111111000000000000000000000000000000000000000000000000000000000000000000000000000000000000001000000000000000010000000000000000000000010000000011111111000000010000000011111111000000001111111100000000000000010000000100000000000000000000000000000000
0000000011111111111111100000000000000000000000000000001000000000000000000000000000000000000000000000000100000000000000011111111000000000000000000000000000000000111111110000001011111111000000000000000000000001000000000000000000000000000000000000000000000000
0000000011111111000000000000000000000000000000000000000100000000000000000000000011111111000000000000000000000000000000001111111100000000000000000000000000000000111111110000000000000001111111110000000100000000000000000000000100000000000000000000000000000000
0000000000000000000000010000000000000000000000000000000000000000000000000000000000000000000000000000000100000000111111110000000000000000000000000000000100000001000000000000000100000000000000000000000000000000111111110000000000000000000000000000000000000000
0000000011111110111111110000000000000000000000000000000000000000000000001111111100000001000000000000000000000000000000011111111100000000111111110000000111111111000000000000001000000000000000001111111011111111000000000000000100000000000000000000000000000000
0000000011111111111111100000000000000000000000000000001000000000000000000000000100000000000000000000000100000000000000001111111100000000111111110000001000000001000000010000000011111111000000010000000000000011111111111111111100000000000000000000000000000000
0000000000000001111111100000000000000000000000001111111100000000000000001111111100000000000000000000000000000000000000011111111100000000000000000000000000000010000000010000000111111111000000011111111100000000000000001111111100000000000000000000000000000000
0000000000000000111111110000000000000000000000000000000100000000000000001111111100000000000000000000000000000000000000001111111100000000000000000000000011111111000000000000000100000000111111110000000000000000000000000000000100000000000000000000000000000000
0000000011111111111111110000000000000000000000000000000000000000000000001111111100000000000000001111111100000000111111110000000000000000000000010000000011111111000000000000000000000000111111110000000000000001111111110000000000000000000000000000000000000000
0000000000000000111111110000000000000000000000000000000000000000000000001111111100000000000000000000000100000000000000001111111100000000111111110000000000000000000000000000000111111111000000001111111100000001111111100000000100000000000000000000000000000000
0000000000000001000000000000000000000000111111110000000000000000000000000000000111111111000000000000000100000000111111110000000000000000000000000000000011111111111111110000000000000000111111110000000111111110000000010000000000000000000000000000000000000000
0000000011111111000000010000000000000000000000001111111100000000000000000000000011111111000000000000001100000000000000010000000000000000000000000000000100000000000000010000000000000000000000011111111100000000000000001111111100000000000000000000000000000000
0000000000000000000000000000000000000000000000000000000000000000000000000000000011111111000000000000000000000000000000000000000000000000000000000000000000000001000000010000000000000000000000000000000100000001111111111111111100000000000000000000000000000000
0000000000000000000000100000000000000000000000000000000000000000000000000000000011111111000000000000000000000000111111110000000100000000000000000000000000000001000000011111111000000000000000000000000000000001000000001111111100000000000000000000000000000000
0000000000000000000000000000000000000000000000000000000000000000000000000000000000000000000000000000000000000000000000000000000000000000000000000000000000000001000000000000000000000000000000000000000000000000000000000000000000000000000000000000000000000000
0000000011111111000000000000000000000000000000000000000000000000000000001111111111111100000000000000000000000000000000000000001000000000000000000000001100000000000000101111111011111111000000000000000000000001111111111111111000000000000000000000000000000000
0000000000000010000000000000000000000000000000001111111100000000000000000000000111111111000000000000000000000000000000000000000000000000000000000000000111111111000000011111111011111111000000000000000111111111000000001111111000000000000000000000000000000000
0000000000000000000000010000000000000000000000001111111100000000000000000000000000000000000000000000000000000000000000010000000000000000000000010000000000000000111111110000000100000000000000000000000000000000000000011111111100000000000000000000000000000000
0000000011111110000000000000000000000000000000000000001000000000000000000000000011111111000000000000000100000000000000011111111100000000000000010000000100000000000000100000000011111110000000001111111100000010000000001111111000000000000000000000000000000000
0000000000000001000000000000000000000000000000001111111100000000000000001111111111111111000000000000000100000000111111110000000000000000000000010000000000000001000000010000000000000000000000100000000011111111111111110000000000000000000000000000000000000000
0000000011111110111111110000000000000000000000000000000100000000000000001111111100000000000000000000001000000000000000101111111100000000111111110000000000000000000000100000000011111111000000001111111000000001000000100000000000000000000000000000000000000000
0000000000000001000000000000000000000000000000000000000000000000000000000000000000000000000000000000000000000000111111110000000000000000000000000000000000000001000000010000000000000000000000000000000000000000000000000000000100000000000000000000000000000000
0000000000000000000000000000000000000000000000000000000100000000000000000000000000000000000000000000000100000000000000010000000000000000000000000000000000000001111111110000000111111111000000011111111100000000000000000000000000000000000000000000000000000000
0000000000000000000000000000000000000000000000000000000000000000000000000000000000000000000000000000000100000000000000010000000000000000000000000000000000000001000000000000000111111111000000011111111111111111000000001111111100000000000000000000000000000000
0000000011111111000000000000000000000000000000000000000000000000000000000000000011111111000000000000001000000000000000000000000100000000000000000000000100000001000000010000000011111111000000000000000000000001000000001111111100000000000000000000000000000000
0000000000000001000000000000000000000000000000001111111100000000000000000000000011111111000000000000000000000000111111111111111100000000000000000000000000000000000000001111111111111111000000010000000100000000111111110000000000000000000000000000000000000000
0000000000000000000000000000000000000000000000000000000000000000000000001111111100000001000000000000001000000000000000011111111100000000000000000000000011111111000000010000001111111111000000001111110100000000000000100000000000000000000000000000000000000000
0000000000000000111111110000000000000000000000000000000111111111000000001111111100000000000000000000000000000000000000000000000000000000000000001111111100000000000000010000000000000000111111111111111100000001000000000000000100000000000000000000000000000000
0000000000000001000000011111111100000000000000001111111100000000000000000000000011111111000000000000000100000000111111110000000100000000000000010000000000000001000000001111111111111111111111110000000100000000111111101111111000000000000000000000000000000000
0000000011111110000000010000000000000000000000000000000000000000000000001111111111111111000000000000001000000000000000000000000100000000000000010000000000000000000000010000000011111111000000000000000000000001000000001111111100000000000000000000000000000000
0000000011111111111111110000000000000000000000000000000100000000000000001111111111111111000000000000000000000000000000001111111100000000111111110000000100000001000000101111111111111111000000001111111000000010000000010000000100000000000000000000000000000000
0000000011111111000000100000000000000000000000001111111000000000000000000000000011111101000000000000000000000000111111110000010000000000000000010000001000000001000000011111110100000000000000000000001000000001111111011111110100000000000000000000000000000000
0000000011111110111111100000000000000000000000000000000000000000000000000000000000000000000000000000001100000000000000010000000000000000000000010000000111111111000000100000000000000000111111100000000000000010000000101111111000000000000000000000000000000000
0000000000000000000000000000000000000000000000000000000000000000000000000000000000000000000000000000000100000000000000010000000000000000000000000000000000000010111111110000000100000000000000000000000011111111000000010000000000000000000000000000000000000000
0000000000000000000000000000000000000000000000000000000000000000000000000000000011111111000000000000000000000000000000000000000000000000000000000000000111111110000000001111111111111111000000000000000100000000111111110000000100000000000000000000000000000000
0000000011111111111111110000000000000000000000000000000000000000000000000000000011111111000000000000000100000000000000010000000000000000000000000000000100000000000000101111111100000000000000000000000000000001000000001111111100000000000000000000000000000000
0000000000000000000000000000000000000000000000000000000000000000000000000000000100000000000000000000001000000000000000001111111100000000000000000000000000000000000000000000000111111111000000000000000000000000000000101111111100000000000000000000000000000000
0000000011111110111111110000000000000000000000000000000100000000000000001111111000000000000000000000000100000000000000001111111100000000000000001111111100000000000000100000001100000000000000001111111000000000000000011111111100000000000000000000000000000000
0000000000000001000000010000000000000000000000001111111100000000111111111111111100000000000000000000000100000000000000000000000000000000000000000000000000000001111111110000000100000000000000011111111100000000111111110000000000000000000000000000000000000000
0000000000000000111111110000000000000000000000000000000000000000000000000000000011111111000000001111111100000000000000000000000000000000000000000000000100000000111111110000000111111111111111110000000011111111000000000000000000000000000000000000000000000000
0000000000000000000000000000000000000000000000000000000100000000000000000000000011111111000000000000000000000000111111110000000000000000000000000000000100000000111111110000000011111111111111110000000000000001000000010000000000000000000000000000000000000000
0000000000000001000000000000000000000000000000000000000000000000000000000000000011111111000000001111111100000000000000000000000000000000000000000000000100000001000000000000000000000000000000000000000000000000111111110000000000000000000000000000000000000000
0000000000000000000000000000000000000000000000000000000100000000000000000000000100000000000000000000000100000000000000011111111100000000111111110000000111111111000000001111111011111111000000001111111100000001000000010000000000000000000000000000000000000000
0000000011111111000000010000000000000000000000000000000011111111000000000000000000000000000000000000000000000000000000010000000000000000000000000000000111111111000000100000000000000000000000000000000000000000000000000000000000000000000000000000000000000000
0000000000000000000000010000000000000000000000000000000000000000000000000000000011111111000000000000000000000000111111110000000100000000000000000000000000000001111111111111111100000001000000000000000011111111111111100000000000000000000000000000000100000000
0000000011111111000000010000000000000000000000000000000000000000111111111111111100000000000000000000000100000000111111110000000000000000000000001111111100000001000000001111111100000000000000000000000000000001000000000000000000000000000000000000000000000000
0000000000000000000000000000000000000000000000000000000000000000000000000000000000000000000000000000000000000000000000010000000000000000000000000000000000000000000000000000000000000000000000000000000000000000000000000000000000000000000000000000000000000000
0000000011111110000000010000000000000000000000000000000000000000000000001111111111111110000000000000000100000000000000000000001000000000000000010000000111111111000000111111111111111111111111110000000100000001111111111111110100000000000000000000000000000000
0000000011111111000000010000000000000000000000000000000000000000000000000000000111111111000000000000000100000000000000000000000100000000000000100000000100000000000000001111111100000000111111110000000011111111111111101111111100000000000000000000000000000000
0000000000000001111111110000000000000000000000000000000100000000000000000000000000000001000000000000000000000000000000000000000000000000000000001111111100000001111111110000000011111111000000000000000000000001000000011111111100000000000000000000000000000000
0000000011111110000000000000000000000000000000000000000100000000000000001111111100000000000000000000000000000000000000000000000000000000000000010000000000000000000000010000000000000000000000001111111100000010000000001111111100000000000000000000000000000000
0000000011111110000000010000000000000000000000000000000100000000000000001111111011111111000000001111111100000000000000000000000000000000000000011111111111111111000000000000000000000000000000001111111111111111111111111111111100000000000000000000000000000000
0000000011111110000000010000000000000000000000000000000100000000000000001111111000000000000000000000000100000000000000000000000000000000000000001111111100000000000000000000000000000000000000001111111100000001000000011111111100000000000000000000000000000000
0000000000000000000000000000000000000000000000000000000000000000000000000000000000000000000000000000000000000000111111110000000000000000000000000000000000000001111111100000000100000000000000000000000000000000111111110000000000000000000000000000000000000000
0000000000000001000000000000000000000000000000000000000000000000000000000000000000000000000000000000000000000000000000010000000000000000111111110000000000000000000000000000000011111111000000011111111100000001000000100000000000000000000000000000000000000000
0000000000000000111111110000000000000000000000000000000000000000000000000000000000000000000000000000000100000000000000010000000000000000000000000000000100000001000000000000000100000000000000000000000011111111000000011111111100000000000000000000000000000000
0000000011111111000000010000000000000000000000001111111100000000000000001111111100000000000000000000000100000000000000011111111100000000000000000000000000000000000000000000000111111111000000000000000000000000000000000000000000000000000000000000000000000000
0000000000000000000000000000000000000000000000000000000000000000000000001111111111111111000000000000000100000000000000000000000100000000000000000000000000000001111111110000000011111111000000010000000000000000000000001111111000000000000000000000000000000000
0000000000000001111111110000000000000000000000000000000000000000111111111111111100000001000000000000001000000000000000010000000000000000111111110000000011111111000000101111111100000000000000011111111100000001000000100000000100000000000000000000000000000000
0000000000000000111111110000000000000000000000000000000000000000000000001111111100000000000000000000000000000000000000000000000000000000000000001111111100000000000000011111111100000000111111110000000100000000000000000000001000000000000000000000000000000000
0000000011111111000000010000000000000000000000000000000000000000000000000000000011111111000000000000000100000000000000000000000000000000000000010000000111111111000000011111111111111111111111100000000100000000000000001111111000000000000000000000000000000000
0000000011111111111111110000000000000000000000000000000000000000000000001111111100000000000000000000000100000000000000010000000000000000111111110000000011111111000000010000000000000000000000001111111100000001000000010000000000000000000000000000000000000000
0000000011111111000000010000000000000000000000000000000100000000000000001111111100000001000000000000000100000000111111111111111100000000111111111111111000000000000000100000000000000000000000011111111100000010000000000000000000000000000000000000000000000000
0000000000000000000000010000000000000000000000001111111100000000000000000000000111111111000000000000000100000000000000000000000000000000000000010000001000000000000000011111111011111110000000010000000000000001000000001111111100000000000000000000000000000000
0000000011111111111111100000000000000000000000000000001000000000000000001111111100000001000000000000000000000000000000100000000000000000000000001111111011111101000000010000001100000001111111111111110000000001000000110000001000000000000000000000000000000000
0000000000000000000000010000000000000000000000000000000000000000000000001111111100000000000000000000000000000000000000010000000100000000000000001111111100000001111111110000000100000001000000010000000011111111000000000000000000000000000000000000000000000000
0000000000000000000000000000000000000000000000000000000100000000000000000000000000000000000000001111111100000000000000011111111100000000000000000000000000000000000000011111111100000000000000001111111100000000000000001111111100000000000000000000000000000000
0000000011111111111111110000000000000000000000000000001000000000000000000000000000000000000000000000000100000000000000011111111100000000000000001111111111111110000000110000000000000000000000001111111000000010000000111111111100000000000000000000000000000000
0000000011111110000000000000000000000000000000000000000000000000000000001111111100000000000000000000000100000000111111110000000000000000000000000000000000000000000000000000000100000000000000010000000000000010000000000000000000000000000000000000000000000000
0000000000000000111111110000000000000000000000000000000100000000000000001111111000000010000000000000000100000000000000001111111000000000000000001111111000000000000000101111111100000010111111111111111100000010000000100000000100000000000000000000000000000000
0000000000000001000000010000000000000000000000000000000000000000000000001111111111111111000000000000000100000000111111110000000100000000000000000000000100000001111111111111111100000000000000000000000011111111111111101111111100000000000000000000000000000000
0000000000000000111111110000000000000000000000000000000000000000000000000000000000000000000000001111111100000000111111110000000000000000000000000000000100000000000000000000000000000000000000000000000100000000000000000000000000000000000000000000000000000000
0000000000000000111111110000000000000000000000000000000000000000000000000000000011111111000000001111111000000000111111110000000000000000000000000000000000000000000000000000000011111111000000000000000000000000111111110000000100000000000000000000000000000000
0000000000000000000000000000000000000000000000000000000000000000000000000000000000000000000000000000000000000000111111110000000000000000000000000000000000000001000000000000000011111111000000000000000100000000111111110000000000000000000000000000000000000000
0000000000000000111111110000000000000000000000000000000100000000000000001111111100000000000000000000001100000000000000010000000000000000000000011111111100000000000000000000000100000000111111110000000000000001000000100000000000000000000000000000000000000000
0000000011111111000000001111111100000000000000001111111111111111000000001111111100000001000000000000000100000000000000100000000000000000000000000000000011111110000000100000000100000000000000011111110100000001000000110000000100000000000000000000000000000000
0000000000000000000000000000000000000000000000001111111100000000000000000000000011111111000000001111111100000000000000000000000000000000000000001111111100000001000000000000000011111111111111110000000100000000000000000000000000000000000000000000000000000000
0000000000000000000000010000000000000000000000000000000000000000000000000000000100000000000000000000000000000000000000101111111100000000111111110000000111111110000000000000000011111111000000000000000000000000000000011111111100000000000000000000000000000000
0000000000000001000000000000000000000000000000000000000000000000000000001111111100000000000000000000000000000000000000000000000000000000000000000000000000000000000000000000000011111111000000000000000000000000000000010000000000000000000000000000000000000000
0000000011111110000000010000000000000000000000000000000100000000000000001111111011111111000000000000001000000000000000010000000000000000000000000000000111111110000001001111111011111111111111110000000000000010000000001111111000000000000000000000000000000000
0000000000000000111111110000000000000000000000000000000000000000000000000000000000000000000000000000000000000000111111110000000000000000000000010000000011111111000000001111111100000000111111100000000111111111000000001111111100000000000000000000000000000000
0000000000000010000000000000000000000000000000000000000000000000000000000000000100000000000000001111111100000000000000000000000000000000000000001111111100000000000000000000000000000000111111110000000011111110000000010000000100000000000000000000000000000000
0000000011111111000000001111111100000000000000000000000000000000000000001111111100000000000000000000000100000000000000001111111100000000000000001111111100000000000000101111111100000000000000010000000000000010000000010000000000000000000000000000000000000000
0000000000000000000000000000000000000000000000000000000011111111000000001111111100000000000000000000000000000000000000000000000000000000000000010000000000000001000000001111111100000000111111110000000100000001000000001111111100000000000000000000000000000000
0000000011111111111111110000000000000000000000000000000100000000000000001111111000000001000000000000000100000000000000011111111100000000111111111111111000000000000000101111111000000000000000011111111000000010000000110000000100000000000000000000000000000000
0000000000000001000000000000000000000000000000000000000000000000000000000000000111111111000000001111111100000000000000000000000000000000000000000000000000000000111111110000000000000000000000000000000011111111000000011111111100000000000000000000000000000000
0000000000000001111111110000000000000000000000000000000100000000000000000000000000000001000000000000000000000000000000011111111000000000111111111111111111111111000000000000000111111111000000011111111000000001000000100000000100000000000000000000000000000000
0000000000000001111111110000000000000000000000000000000000000000000000001111111100000000000000000000000000000000000000000000000000000000111111111111111100000000000000000000000100000000000000001111111111111111000000010000000100000000000000000000000000000000
0000000000000000000000000000000000000000000000000000000000000000000000000000000000000000000000000000000100000000000000010000000000000000111111110000000000000000000000010000000011111111000000010000000000000001000000011111111100000000000000000000000000000000
0000000000000001000000010000000000000000000000000000000000000000000000000000000011111110000000001111111100000000111111110000000100000000000000000000000100000001000000001111111011111111000000000000000100000000111111111111111100000000000000000000000000000000
0000000000000001111111110000000000000000000000000000000000000000000000000000000000000010000000000000001000000000000000000000000000000000000000001111111111111111000000010000000100000001000000011111111000000000000000010000001000000000000000000000000000000000
0000000000000000000000000000000000000000000000000000000000000000000000001111111111111111000000000000000100000000000000000000000000000000000000010000000000000000000000010000000000000000000000000000000000000000000000000000000000000000000000000000000000000000
0000000011111101111111110000000000000000000000000000000100000000000000001111111111111111000000000000000000000000000000000000000100000000000000000000000111111110000000010000000011111111111111110000000000000001111111110000000000000000000000000000000000000000
0000000000000000111111110000000000000000000000000000000000000000000000001111111100000001000000000000000000000000000000000000000100000000111111110000000011111111000000010000000000000001000000011111111100000001000000000000001000000000000000000000000000000000
0000000011111110111111110000000000000000000000000000000100000000000000000000000000000010000000000000001000000000000000011111111100000000000000000000000111111111000000100000000000000000000000011111111100000011000000100000000100000000000000000000000000000000
0000000011111101000000010000000000000000000000000000000000000000000000001111111011111111000000000000000100000000000000000000000100000000000000010000000000000000000000111111111100000000111111110000000000000011000000010000000000000000000000000000000000000000
0000000000000001000000000000000000000000000000001111111100000000000000000000000000000001000000000000001100000000000000011111111100000000000000000000000000000001000000001111111100000000000000000000000000000001000000100000000000000000000000000000000000000000
0000000000000001000000010000000000000000000000000000000000000000000000000000000000000000000000000000000000000000000000000000000000000000000000001111111100000000000000001111111100000000111111110000000000000000000000010000000000000000000000000000000000000000
0000000000000001000000000000000000000000000000000000000100000000000000000000000000000000000000000000000000000000000000011111111000000000000000011111111100000000000000000000000011111111000000000000000000000001000000010000000000000000000000000000000000000000
0000000011111101111111110000000000000000000000000000000100000000000000000000000000000000000000000000001000000000000000111111111000000000000000000000000111111110000000111111111111111111000000011111111000000011000001000000000100000000000000000000000000000000
0000000011111110000000000000000000000000000000000000000100000001000000001111111100000001000000000000000000000000000000001111111100000000111111110000000011111111000000000000000100000000000000011111111111111111000000000000000000000000000000000000000000000000
0000000000000000111111110000000000000000000000000000000100000000000000001111111100000010000000000000000100000000000000000000000000000000111111011111110111111111000000010000000100000010000000011111110100000010000000010000001100000000000000000000000000000000
0000000011111111000000000000000000000000000000001111111100000000000000001111111111111111000000001111111000000000111111110000001000000000000000011111111100000000000000010000000000000000111111110000000100000000111111111111111100000000000000000000000000000000
0000000000000000111111110000000000000000000000000000000000000000000000000000000000000000000000000000000000000000000000000000000000000000000000000000000000000000000000000000000000000000000000000000000000000000000000000000000000000000000000000000000000000000
0000000000000000000000000000000000000000000000000000000000000000000000001111111100000000000000001111111100000000000000000000000000000000000000000000000000000000000000000000000000000000000000000000000000000000000000000000000000000000000000000000000000000000
0000000000000000000000010000000000000000000000001111111100000001000000000000000011111111000000001111111100000000000000010000000100000000111111110000000111111111000000000000000011111111111111110000000000000000000000001111111100000000000000000000000000000000
0000000000000010000000000000000000000000000000001111111100000000000000000000000000000000000000000000001000000000000000010000000000000000000000000000000000000001000000001111111100000000000000001111111100000000000000100000000000000000000000000000000000000000
0000000000000001111111110000000000000000000000000000000000000000000000000000000100000000000000000000000100000000000000000000000000000000000000000000000000000000000000010000000100000001000000011111111111111111000000001111111100000000000000000000000000000000
0000000000000000000000000000000000000000000000001111111100000000000000000000000000000000000000000000000000000000000000010000000100000000000000010000000011111111000000000000000000000000111111110000000000000000000000001111111100000000000000000000000000000000
0000000011111111000000000000000000000000000000001111111100000000000000000000000011111111000000000000000000000000000000010000000100000000000000000000000111111111000000010000000100000000000000001111111100000000111111111111111100000000000000000000000000000000
0000000000000001111111110000000000000000000000000000000000000000000000001111111100000000000000000000000100000000000000000000000000000000111111111111111100000001000000011111111100000000000000000000000000000000000000010000000000000000000000000000000000000000
0000000011111110000000010000000000000000000000000000000000000000000000000000000011111111000000000000001000000000000000101111111100000000000000010000000111111110000000100000000111111111000000011111111000000001000000100000000000000000000000000000000000000000
0000000011111111000000000000000000000000000000001111111100000000000000000000000000000000000000000000000000000000000000010000000000000000000000000000000111111111000000010000000011111111000000000000000000000000000000000000000000000000000000000000000000000000
0000000000000010000000000000000000000000000000001111111100000000000000000000000100000001000000000000000100000000000000001111111100000000111111110000000000000000000000000000000000000001000000000000000000000000000000000000000000000000000000000000000000000000
0000000011111111111111110000000000000000000000000000000100000000000000000000000000000001000000000000000000000000000000000000000000000000000000000000000111111111000000010000000011111111000000011111111100000001000000010000000000000000000000000000000000000000
0000000000000001000000010000000000000000000000000000000000000000000000000000000000000000000000001111111100000000000000000000000000000000000000001111111100000000000000011111111111111111000000011111111100000000000000000000000000000000000000000000000000000000
0000000000000000111111110000000000000000000000000000001000000000000000000000000000000010000000000000001000000000111111111111111100000000111111111111111000000000000000111111111100000010000001001111111000000011000000100000001000000000000000000000000000000000
0000000000000001000000000000000000000000000000000000000000000000000000000000000000000000000000000000000100000000000000010000000100000000000000000000000000000000000000001111111100000000000000000000000011111111000000010000000000000000000000000000000000000000
0000000000000010111111110000000000000000000000000000000100000000000000000000000100000001000000000000000100000000000000001111111000000000111111111111111100000000000000000000000000000001000000011111111100000000000000010000000100000000000000000000000000000000
0000000000000001111111110000000000000000000000000000000000000000000000000000000000000001000000000000001000000000000000010000000000000000000000000000000000000000000000001111111100000000000000010000000100000001000000010000000000000000000000000000000000000000
0000000000000001111111110000000000000000000000001111111100000000000000001111111100000001000000000000000100000000000000000000000100000000111111110000000000000001000000010000000000000001000000011111111100000000000000000000000000000000000000000000000000000000
0000000000000000000000000000000000000000000000000000000100000000000000001111111100000000000000001111111100000000000000101111111100000000000000000000000011111111000000101111111111111111111111111111111100000001000000010000000000000000000000000000000000000000
0000000000000001000000000000000000000000000000000000000000000000000000000000000000000000000000000000000000000000000000010000000000000000000000000000000000000000000000000000000000000000000000000000000011111111000000010000000000000000000000000000000000000000
0000000000000000111111110000000000000000000000000000000000000000000000000000000000000000000000001111111100000000000000001111111100000000000000010000000000000001000000010000000000000000111111110000000100000001000000000000000000000000000000000000000000000000
0000000011111110111111110000000000000000000000000000000100000000000000001111111000000000000000001111111100000000000000000000000000000000000000010000000011111110000000000000000000000000000000010000000000000011111111110000000000000000000000000000000000000000
0000000000000000111111110000000000000000000000000000000000000000000000001111111100000000000000001111111100000000000000001111111100000000000000010000000000000000000000011111111100000001000000000000000000000000111111100000000000000000111111110000000000000000
0000000011111111000000010000000000000000000000000000000000000000000000000000000111111111000000001111111100000000000000000000000000000000111111110000000111111110000000011111111100000001000000001111111100000010000000000000000100000000000000000000000000000000
0000000000000000000000010000000000000000000000000000000000000000000000000000000011111111000000001111111100000000000000100000000000000000000000100000000011111111111111110000000011111111111111110000000000000010000000101111111100000000000000000000000000000000
0000000000000001111111110000000000000000000000000000000000000000000000000000000000000000000000000000000100000000000000010000000000000000000000000000000000000000000000000000000000000000000000001111111111111111000000100000000000000000000000000000000000000000
0000000000000001000000000000000000000000000000001111111100000000000000001111111111111111000000000000000000000000111111110000000100000000000000001111111011111111000000000000000000000001000000000000000000000000000000001111111100000000000000000000000000000000
0000000000000000111111110000000000000000000000001111111100000000000000000000000000000001000000001111111100000000000000011111111100000000000000000000000000000000000000011111111100000000111111110000000000000000000000010000000000000000000000000000000000000000
0000000011111110111111110000000000000000000000000000000011111111000000000000000100000000000000000000001000000000000000011111111000000000111111110000001011111110000000100000001000000000000000101111111000000001000000010000000000000000000000000000000000000000
0000000000000000111111110000000000000000000000000000000000000000000000010000000000000000000000000000000000000000111111110000000000000000111111110000000011111110000000000000000000000001000000010000000000000001111111110000001000000000000000000000000000000000
0000000000000001000000000000000000000000000000000000001000000000000000000000001000000010000000000000000100000000000000001111111000000000111111111111111011111111000000000000000000000001000000011111111000000000000000010000001000000000000000000000000000000000
0000000000000001000000100000000000000000000000000000000100000000000000001111111111111110000000001111111000000000111111110000000100000000000000001111111100000000000000001111111000000000000000101111111000000010111111110000000000000000000000000000000000000000
0000000000000010000000000000000000000000000000000000000000000000000000000000000000000001000000000000000000000000000000000000000000000000000000000000000000000001000000010000000011111111000000010000000111111111000000000000000000000000000000000000000000000000
0000000011111111111111100000000000000000000000000000000100000000000000001111111100000001000000001111111100000000000000000000000000000000000000011111111100000000000000100000000000000000000000000000000000000001000000001111111100000000000000000000000000000000
0000000011111111111111110000000000000000000000000000000100000000000000011111111100000000000000001111111100000000111111110000000100000000000000001111111100000000000000011111111100000000000000000000000100000001111111100000000000000000000000000000000000000000
0000000000000001111111110000000000000000000000001111111100000000000000000000000000000001000000000000000100000000000000010000000000000000000000000000000000000000000000000000000000000000000000000000000011111111000000010000000000000000000000000000000000000000
0000000000000000111111110000000000000000000000000000000000000000000000000000000000000000000000000000000100000000000000010000000000000000000000010000000000000000000000000000000111111111111111110000000100000000000000000000000000000000000000000000000000000000
0000000000000000111111110000000000000000000000000000000000000000000000001111111011111110000000001111111100000000000000000000000000000000000000010000000011111111000000101111111100000001000000000000000000000001000000011111111100000000000000000000000000000000
0000000011111111111111110000000000000000000000000000000000000000000000001111111111111111000000001111110100000000111111110000000000000000000000000000000111111111000000010000000000000001000000010000000000000000111111101111111100000000000000000000000000000000
0000000000000001111111110000000000000000000000000000000000000000000000001111111111111111000000000000000000000000000000000000000000000000000000010000000000000000000000011111111100000001000000010000000000000000111111110000000000000000000000000000000000000000
0000000000000000000000010000000000000000000000000000000000000000000000000000000111111111000000000000000100000000000000010000000100000000000000000000000100000000000000000000000011111111000000011111111100000001000000011111111100000000000000000000000000000000
0000000000000001000000000000000000000000000000001111111100000000000000000000000011111111000000000000000100000000000000010000000000000000000000001111111111111111000000000000000011111111111111110000000000000000000000100000000000000000000000000000000000000000
0000000000000001000000010000000000000000000000001111111100000000000000000000000000000000000000000000000000000000000000000000000000000000000000010000000100000000000000000000000000000000000000000000000111111111000000010000000000000000000000000000000000000000
0000000011111111000000000000000000000000000000000000000000000000000000001111111100000001000000001111111100000000000000000000000100000000000000000000000000000000000000011111111100000001000000000000000000000010111111111111111100000000000000000000000000000000
0000000000000000000000100000000000000000000000000000000000000000000000000000000100000000000000000000000000000000111111110000000000000000111111111111111100000000111111110000000100000001000000010000000000000000000000000000000000000000000000000000000000000000
0000000000000001000000000000000000000000000000001111111100000000000000000000000000000010000000000000000100000000000000000000000000000000111111101111111111111111000000000000000000000001000000011111111000000000000000010000001000000000000000000000000000000000
0000000000000000111111110000000000000000000000000000000000000000000000001111111111111111000000001111111100000000111111110000000000000000000000010000000000000000000000100000000000000001000000000000000000000000000000001111111100000000000000000000000000000000
0000000000000010000000010000000000000000000000000000000000000000000000000000000000000000000000000000000100000000000000010000000000000000000000000000000000000001111111110000000011111111000000000000000000000000000000011111111100000000000000000000000000000000
0000000000000000000000000000000000000000000000000000000000000000000000001111111100000000000000001111111100000000000000000000000000000000000000001111111111111111000000010000000000000000000000000000000000000000111111110000000000000000000000000000000000000000
0000000000000000111111110000000000000000000000000000000100000000000000000000000100000000000000000000000000000000000000000000000000000000000000010000000100000000000000101111111100000000000000010000000000000000000000000000000000000000000000000000000000000000
0000000011111111000000000000000000000000000000000000000100000000000000000000000011111111000000001111111100000000000000011111111100000000000000000000000111111111000000011111111111111111000000000000000000000010000000000000000000000000000000000000000000000000
0000000000000001000000000000000000000000000000001111111100000000000000000000000100000000000000000000001000000000000000010000000000000000000000000000000000000000111111110000000000000000000000000000000011111110000000010000000000000000000000000000000000000000
0000000000000001000000000000000000000000000000000000000000000000000000001111111100000000000000000000000000000000000000000000000000000000000000010000000100000001000000000000000000000000111111110000001011111111000000010000000000000000000000000000000000000000
0000000000000000000000000000000000000000000000000000000000000000000000001111111100000000000000000000000000000000000000010000000100000000111111110000000000000000000000000000000000000001111111111111111100000000111111100000000000000000000000000000000000000000
0000000000000000000000000000000000000000000000000000000100000000000000000000000011111111000000000000000000000000000000000000000100000000111111110000000100000000111111111111111111111111000000001111111100000001000000001111111100000000000000000000000000000000
0000000000000001000000000000000000000000000000000000000000000000000000000000000100000000000000000000000000000000111111110000000000000000111111110000000000000000111111110000001000000000000000000000000011111111000000000000000000000000000000000000000000000000
0000000000000001000000010000000000000000000000000000000000000000000000000000000000000000000000000000000100000000000000001111111100000000000000000000000100000001000000001111111111111111000000000000000000000001000000000000000100000000000000000000000000000000
0000000000000001000000000000000000000000000000000000000000000000000000000000000111111111000000000000000000000000000000000000000000000000000000000000000000000000111111110000000000000000000000011111111111111111000000000000000000000000000000000000000000000000
0000000011111101000000000000000000000000000000000000000100000000000000001111111100000000000000001111111100000000000000000000000100000000000000000000000100000000000000000000000011111111111111100000001000000000111111110000000000000000000000000000000000000000
0000000011111111000000000000000000000000000000001111111100000000000000001111111111111111000000001111111100000000111111110000000000000000000000010000000100000000000000010000000100000001111111100000000011111111000000001111111100000000000000000000000000000000
0000000000000001000000000000000000000000000000001111111100000000000000000000000100000000000000000000000100000000111111110000000000000000000000011111111100000000111111110000000000000001111111110000000011111111111111110000000000000000000000000000000000000000
0000000011111110000000000000000000000000000000000000000100000000000000000000000000000000000000001111111100000000000000000000001000000000000000000000000100000001000000000000000100000000111111110000000000000000111111101111111100000000000000000000000000000000
0000000000000001000000110000000000000000000000000000000000000000000000000000000111111111000000000000001000000000000000010000000000000000111111100000000000000001111111111111111100000000000000010000000000000000000000000000000000000000000000000000000000000000
0000000011111111000000100000000000000000000000000000000100000000000000000000000000000001000000000000000100000000000000000000000100000000111111111111111100000000000000001111111100000001000000011111111100000000111111110000000100000000000000000000000000000000
0000000000000001000000000000000000000000000000000000000000000000000000001111111100000000000000000000000100000000000000010000000000000000000000010000000000000001000000000000000000000000111111110000000100000000000000011111111100000000000000000000000000000000
0000000011111111000000010000000000000000000000000000000000000000000000001111111000000001000000000000000000000000000000100000000100000000000000000000000000000000000000010000001000000001111111110000000111111111111111110000000100000000000000000000000000000000
0000000000000000000000100000000000000000000000000000000100000000000000001111111111111111000000000000000100000000000000100000000100000000000000000000000000000001111111111111111111111110000000000000000100000001111111110000000000000000000000000000000000000000
0000000000000001000000000000000000000000000000000000000000000000000000000000000000000000000000000000000000000000000000001111111100000000000000000000000000000000000000000000000000000000111111110000000000000000000000010000000000000000000000000000000000000000
0000000000000001111111110000000000000000000000000000000000000000000000000000000000000000000000000000000000000000000000000000000100000000000000010000000000000000111111100000000011111111111111110000000000000000000000001111111100000000000000000000000000000000
0000000000000000000000000000000000000000000000001111111100000000000000000000000000000001000000000000000000000000000000000000000100000000000000010000000000000001111111110000000000000000111111110000000000000000111111110000000000000000000000000000000000000000
0000000000000000000000000000000000000000000000000000000000000000000000000000000000000000000000001111111100000000000000000000000000000000111111100000000100000001000000000000000011111111000000001111111100000001111111111111111100000000000000000000000000000000
0000000011111111000000000000000000000000000000000000000000000000000000001111111111111111000000001111111100000000000000000000000100000000000000010000000000000001111111110000000000000000111111110000000011111111111111111111111100000000000000000000000000000000
0000000000000000000000000000000000000000000000000000000000000000000000000000000011111111000000000000000000000000000000000000000000000000000000000000001000000001000000000000000011111111111111110000000100000000000000001111111100000000000000000000000000000000
0000000000000010111111110000000000000000000000000000000000000000000000000000000000000000000000000000000100000000000000001111111100000000000000000000000000000000111111110000000000000000000000000000000011111111000000010000000000000000000000000000000000000000
0000000000000001111111110000000000000000111111111111111100000000000000000000000000000000000000000000000000000000000000000000000000000000000000000000000000000001111111110000000000000000111111110000000111111111000000010000000000000000000000000000000000000000
0000000011111111000000010000000000000000000000000000001000000000000000000000000111111110000000001111111100000000000000000000000100000000111111110000000011111111000000000000000100000000111111110000000011111111000000000000000100000000000000000000000000000000
0000000000000000000000010000000000000000000000000000000000000001000000000000000000000000000000000000000100000000000000000000000000000000111111110000000100000000000000001111111100000001000000001111111100000000111111100000000000000000000000000000000000000000
0000000000000001000000100000000000000000000000000000000100000000000000000000000100000000000000000000001000000000000000100000000100000000111111110000000100000001111111110000000011111111000000010000000000000001111111110000000000000000000000000000000000000000
0000000000000000000000000000000000000000000000000000000000000000000000000000000000000001000000000000000000000000000000000000000100000000000000010000000000000000000000001111111111111111111111100000000000000000111111111111111100000000000000000000000000000000
0000000000000001000000000000000000000000000000000000000000000000000000000000000000000000000000000000000000000000000000010000000000000000000000000000000000000000111111110000000000000000111111110000000011111111000000011111111100000000000000000000000000000000
0000000000000001000000000000000000000000000000000000000000000000000000001111111100000000000000001111111100000000000000000000000000000000000000001111111100000000111111110000000000000000000000001111111100000000000000000000000000000000000000000000000000000000
0000000000000000000000000000000000000000000000000000000000000000000000000000000011111111000000000000000000000000000000000000000100000000111111110000000100000001111111110000000011111111000000000000000000000001000000001111111100000000000000000000000000000000
0000000000000000000000010000000000000000000000000000000000000000000000000000000000000000000000000000000000000000000000001111111100000000111111110000000000000000111111111111111100000000000000000000000100000000111111111111111100000000000000000000000000000000
0000000011111111000000000000000000000000000000000000000100000000000000000000000100000000000000000000000100000000000000011111111000000000111111110000000011111110000000100000000000000001000000101111111100000010000000000000000000000000000000000000000000000000
0000000000000001000000010000000000000000000000000000000000000000000000000000000011111111000000000000000100000000000000010000001000000000000000000000000000000001111111110000000100000000000000000000000111111110000000000000000000000000000000000000000000000000
0000000011111111000000000000000000000000000000000000000100000000000000001111111100000001000000000000000000000000000000000000000000000000000000001111111111111111111111110000000100000000111111110000000000000000000000001111111100000000000000000000000000000000
0000000000000000000000000000000000000000000000001111111100000000000000000000000011111111000000001111111100000000000000000000000100000000000000000000000100000001000000010000000000000000000000000000000000000001111111110000000000000000000000000000000000000000
0000000000000000000000100000000000000000000000000000000000000000000000000000000111111111000000000000000100000000000000101111111100000000000000000000000011111111111111100000000011111111111111110000000000000000000000101111111100000000000000000000000000000000
0000000011111111111111110000000000000000000000000000000100000000000000000000000000000001000000000000000100000000111111111111111100000000000000010000000011111111000000010000001011111111000000000000000011111111000000000000000000000000000000000000000011111111
0000000000000000000000010000000000000000111111110000000000000000000000000000000000000001000000000000000100000000000000011111111100000000000000001111111100000000000000010000000011111111000000000000000100000001000000011111111100000000000000000000000000000000
0000000000000000000000000000000000000000000000000000000000000000000000000000000100000001000000000000001100000000000000001111111100000000000000000000000100000000111111100000000111111111000000000000001111111110111111101111111100000000000000000000000000000000
0000000000000000000000000000000000000000000000001111111100000000000000001111111111111110000000000000001000000000000000000000010000000000000000000000001100000001111111100000000100000001000000000000001011111110111111011111111100000000000000000000000000000000
0000000000000000000000010000000000000000000000000000000100000000000000000000000011111111000000000000000100000000000000000000000000000000000000000000000000000000000000000000000100000000000000010000000000000000000000011111111100000000000000000000000000000000
0000000011111111000000000000000000000000000000000000000100000000000000000000000011111111000000000000000000000000000000000000000000000000000000000000000100000000000000000000000000000000000000000000000000000001111111111111111100000000000000000000000000000000
0000000011111110000000000000000000000000000000000000001100000000111111110000000011111111000000000000000100000000000000001111111100000000000000000000001011111111000000000000000111111110000000001111111100000000000000001111111000000000000000000000000000000000
0000000011111101000000000000000000000000000000000000001000000000000000000000000000000011000000000000000100000000000000011111111000000000000000001111111011111110111111100000010000000001000000011111111100000000111111110000000000000000000000000000000000000000
0000000000000000000000010000000000000000000000001111111100000000000000000000000000000001000000000000000100000000000000010000001000000000000000000000000111111111111111100000001000000000000000000000000111111111111111111111111100000000000000000000000000000000
0000000011111111000000100000000000000000000000001111111100000000000000001111111100000000000000000000001000000000000000100000001100000000000000000000000011111111111111110000001100000010111111110000000011111110111111111111111000000000000000000000000000000000
0000000011111101000000010000000000000000000000000000000000000000000000001111111100000010000000000000000100000000000000011111111100000000111111111111111011111110111111110000001100000001000000000000000011111111111111111111111100000000000000000000000000000000
0000000000000000000000000000000000000000000000000000000000000000000000000000000000000001000000000000001000000000000000011111111100000000000000010000000011111111111111110000000111111111000000000000000111111111000000011111111100000000000000000000000000000000
0000000000000000000000010000000000000000000000000000000100000000000000000000000000000000000000000000000100000000000000010000000000000000000000000000000000000000111111110000000100000000000000000000000000000000000000000000000000000000000000000000000000000000
0000000011111111000000010000000000000000000000000000000100000000000000000000000000000001000000000000000000000000000000000000000000000000000000001111111111111111111111110000000100000001000000000000000000000000000000001111111100000000000000000000000000000000
0000000000000000111111110000000000000000000000001111111100000000000000001111111111111111000000001111111100000000111111110000001000000000000000001111111100000000000000000000000000000000000000001111111000000000000000000000000000000000000000000000000000000000
0000000000000000000000010000000000000000000000000000000000000000000000000000000000000000000000000000000000000000111111110000000000000000000000001111111100000000111111110000000000000001111111110000000011111111000000000000000000000000000000000000000000000000
0000000000000000000000000000000000000000000000001111111100000000000000000000000011111111000000000000000000000000000000000000000100000000000000000000000000000000000000011111111100000001000000000000000100000000111111110000000000000000000000000000000000000000
0000000000000000000000010000000000000000000000000000000000000000000000000000000000000001000000000000001000000000000000011111111100000000000000100000000100000000000000000000000011111111111111110000001011111111000000011111111000000000000000000000000000000000
0000000000000001000000010000000000000000000000001111111100000000000000000000000011111111000000000000000000000000000000010000000100000000000000000000000000000001000000001111111100000000000000000000000011111110000000000000000100000000000000000000000000000000
0000000000000000000000000000000000000000000000000000000000000000000000000000000011111110000000000000000000000000111111100000001000000000111111110000000100000001000000001111111100000001000000000000000000000000111111110000000000000000000000000000000000000000
0000000011111110111111110000000000000000000000000000001000000000000000000000000100000001000000000000000000000000000000001111111100000000000000001111111111111111000000000000001011111111000000010000000000000000000000001111111100000000000000000000000000000000
0000000011111110000000000000000000000000000000000000001000000000000000000000000100000000000000000000000100000000000000011111111100000000111111110000000011111111000000000000000100000000000000001111111100000001000000001111111100000000000000000000000000000000
0000000000000001000000010000000000000000000000000000000100000000000000001111111100000000000000000000000000000000000000000000000000000000000000000000000000000000111111100000000000000000111111100000000111111111000000011111111100000000000000000000000000000000
0000000000000000000000010000000000000000000000000000000000000000000000000000000000000000000000000000000000000000000000011111111100000000000000000000000000000000111111110000000000000001000000000000000000000000000000001111111100000000000000000000000000000000
0000000000000001000000010000000000000000000000000000000100000000000000001111111100000000000000000000000000000000000000010000000000000000000000001111111111111111111111110000000000000000000000000000000000000000000000000000000000000000000000000000000000000000
0000000000000000000000000000000000000000000000000000000000000000000000000000000000000000000000000000000000000000000000000000000000000000000000000000000000000000000000000000000000000001000000000000000000000001111111110000000000000000000000000000000000000000
0000000000000000000000000000000000000000000000000000000000000000000000000000000000000000000000000000000100000000000000010000000000000000000000001111111111111111000000000000000100000000000000000000000011111111111111111111111100000000000000000000000000000000
0000000000000000000000000000000000000000000000000000000000000000000000000000001000000000000000000000000100000000000000011111111100000000111111110000000011111111000000101111111100000001000000010000000000000001000000000000000000000000000000000000000000000000
0000000000000000000000010000000000000000000000000000000000000000000000000000000100000000000000000000000100000000111111110000001000000000000000000000000100000000111111110000000100000000000000100000000100000000111111101111111100000000000000000000000000000000
0000000011111111000000000000000000000000000000000000000000000000000000001111111100000000000000000000000000000000000000000000000100000000000000010000000100000000000000010000000000000000111111110000000100000000111111110000000000000000000000000000000000000000
0000000000000000000000010000000000000000000000001111111100000000000000000000000011111111000000000000000000000000000000000000000100000000000000000000000000000000000000001111111100000001000000001111111100000000000000001111111100000000000000000000000000000000
0000000011111110000000000000000000000000000000000000001000000000000000000000001000000001000000000000001000000000000000011111111100000000111111010000001011111110000000000000001000000000000000111111111000000001111111110000000000000000000000000000000000000000
0000000011111111111111110000000000000000000000000000000000000000000000001111111100000000000000000000000000000000000000000000001000000000000000000000000000000000111111110000001000000000000000000000000000000000111111100000000000000000000000000000000000000000
0000000011111111000000000000000000000000000000000000000000000000000000000000000100000010000000000000000100000000000000101111111000000000000000000000000100000000000000010000000111111111000000010000000000000001000000010000000100000000000000000000000000000000
0000000011111110000000000000000000000000000000000000001100000000000000000000001000000011000000000000001100000000000000001111111100000000111111110000001011111111111111000000010100000000000000110000000011111110111111011111111000000000000000000000000000000000
0000000000000000000000010000000000000000000000001111111000000000000000000000000000000000000000000000000100000000111111100000001100000000000000000000001000000000000000000000000100000001000000000000001011111101111111101111111100000000000000000000000000000000
0000000011111111000000000000000000000000000000000000000100000000000000000000001000000000000000000000000000000000000000010000000000000000111111110000000111111111000000001111111100000001000000011111111000000001000000000000000100000000000000000000000000000000
0000000011111111111111110000000000000000000000000000000000000000000000001111111100000000000000001111111100000000111111100000000000000000000000000000000000000000000000000000000100000001111111111111111100000000111111100000000000000000000000000000000000000000
0000000011111111111111110000000000000000000000000000001000000000000000000000001000000010000000000000001000000000000000101111110100000000111111110000000111111111000000000000001011111110000000100000000100000000000000100000000000000000000000000000000000000000
0000000011111111000000000000000000000000000000000000000100000000000000000000000000000010000000000000001000000000000000011111110100000000111111111111111011111111111111100000001000000000000000010000000100000001000000001111111100000000000000000000000000000000
0000000000000000000000100000000000000000000000000000000000000000000000000000000000000000000000000000000100000000000000000000001000000000000000010000000111111111111111010000001000000000000000000000001011111111111111011111110000000000000000000000000000000000
0000000011111110000000000000000000000000000000000000000100000000000000000000000000000000000000000000000000000000111111010000000100000000000000010000000000000000000000000000001000000001111111110000000111111111111111011111111100000000000000000000000000000000
0000000011111110000000010000000000000000000000000000000100000000000000000000000000000001000000000000000100000000111111111111111100000000000000001111111111111111111111100000001000000001000000010000000111111111111111101111111000000000000000000000000000000000
0000000000000000000000010000000000000000000000000000000100000000000000000000001000000000000000000000001000000000000000100000000000000000111111110000010011111111000000000000000011111111000000010000000100000000000000011111111100000000000000000000000000000000
0000000000000000000000000000000000000000000000000000000000000000000000001111111111111111000000000000000000000000111111110000000100000000111111110000000100000001000000000000000000000000000000011111111100000000111111110000000000000000000000000000000000000000
0000000011111110000000010000000000000000000000000000000000000000000000001111111111111111000000000000000000000000000000000000000100000000000000000000000011111111000000000000000100000001111111110000000000000000111111100000000000000000000000000000000000000000
0000000000000000111111110000000000000000000000000000000000000000000000001111111111111111000000001111111000000000111111110000001000000000000000010000000000000000000000000000000000000000111111111111111000000000000000001111111100000000000000000000000000000000
0000000000000000000000010000000000000000000000000000000000000000000000001111111111111111000000001111111100000000000000000000000100000000000000000000000000000000000000000000000100000000000000000000000000000000111111110000000000000000000000000000000000000000
0000000000000000000000000000000000000000000000000000000000000000000000001111111100000000000000000000000000000000111111110000001000000000000000000000000100000000000000011111111100000000000000000000000100000001111111100000000000000000000000000000000000000000
0000000000000001000000000000000000000000000000000000000100000000000000000000000000000000000000000000000100000000000000011111111100000000000000000000000000000001000000000000000011111110000000000000000100000001000000010000000000000000000000000000000000000000
0000000000000001000000000000000000000000000000000000000100000000000000000000000111111110000000001111111100000000111111100000001000000000000000010000001000000010000000001111111100000000000000000000000011111110111111100000000000000000000000000000000000000000
0000000000000000000000000000000000000000000000000000000000000000000000000000000011111111000000001111111100000000111111110000000100000000000000000000000000000000000000000000000000000001000000001111111100000000111111110000000000000000000000000000000000000000
0000000011111111111111100000000000000000000000000000000000000000000000001111111100000010000000000000000100000000000000011111111000000000111111111111111100000001111111100000001111111110000000010000000100000000000000001111111100000000000000000000000000000000
0000000011111110000000000000000000000000000000000000000100000000000000000000000000000010000000000000001000000000000000011111111000000000111111110000000000000000111111110000000100000000000000010000000000000001000000010000000000000000000000000000000000000000
0000000000000000000000010000000000000000000000000000000100000000000000001111111100000000000000001111111100000000000000000000000100000000000000000000000000000001000000000000000000000001000000000000000100000000111111111111111100000000000000000000000000000000
0000000000000000000000000000000000000000000000000000000000000000000000000000000100000000000000001111111100000000000000000000000000000000000000000000000011111111000000011111111100000001000000011111111100000001000000000000000100000000000000000000000000000000
0000000011111110000000010000000000000000000000000000001000000000000000000000000000000001000000000000000000000000000000000000000000000000000000000000000011111111111111110000000000000000000000000000000100000000111111110000000000000000000000000000000000000000
0000000000000000000000010000000000000000000000000000000000000000000000000000000011111111000000000000000000000000111111110000000100000000000000000000000000000001000000000000000000000000000000000000000000000000111111110000000000000000000000000000000000000000
0000000000000001000000010000000000000000000000001111111100000000000000001111111111111111000000000000000000000000000000000000000100000000000000010000000100000000111111100000000100000000000000010000001011111111111111011111111100000000000000000000000000000000
0000000011111111111111110000000000000000000000000000000100000000000000000000000100000010000000000000000100000000000000101111111000000000111111100000000011111110000000100000000100000000000000101111111000000001000000000000000100000000000000000000000000000000
0000000000000000000000000000000000000000000000001111111100000000000000000000000000000000000000001111111100000000000000000000000000000000000000001111111100000000000000011111111111111111111111110000000100000001000000001111111100000000000000000000000000000000
0000000011111111000000000000000000000000000000001111111100000000000000001111111100000000000000001111111100000000000000000000000100000000000000010000000000000000000000001111111100000001111111110000000000000000111111110000000000000000000000000000000000000000
0000000000000001000000000000000000000000000000001111111100000000000000000000000011111111000000000000000000000000000000000000000100000000000000000000000000000000000000011111111100000000000000000000000000000001000000000000000000000000000000000000000000000000
0000000011111110000000000000000000000000000000000000001000000000000000000000000000000000000000000000000100000000000000000000000000000000111111100000000100000000000000010000000100000000000000011111111000000000000000000000000000000000000000000000000000000000
0000000000000000000000000000000000000000000000000000000000000000000000001111111100000000000000001111111100000000111111110000001000000000000000100000000100000000000000011111111100000000111111100000000111111111111111110000000000000000000000000000000000000000
0000000000000000111111010000000000000000000000000000001000000000000000000000000100000011000000000000001000000000000000011111110100000000111111000000000000000001000000000000001111111111000000101111110111111111000000100000000100000000000000000000000000000000
0000000000000000000000000000000000000000000000000000001000000000000000000000001000000000000000000000000000000000111111111111111000000000111111110000001011111111111111110000001011111111000000000000000111111111111111101111111000000000000000000000000000000000
0000000000000000000000010000000000000000000000001111111011111111000000000000000100000001000000000000000100000000111111110000000100000000000000010000000000000000000000001111111100000000000000000000001000000000000000001111111100000000000000000000000000000000
0000000011111111111111110000000000000000000000000000001000000000000000000000001000000000000000000000000100000000000000011111111000000000111111000000000111111110000000000000000100000000000000011111111000000000000000010000000100000000000000000000000000000000
0000000011111111000000000000000000000000000000000000000000000000000000001111111111111111000000001111111100000000111111100000000100000000000000000000000000000001111111111111111100000000000000000000000000000000111111101111111100000000000000000000000000000000
0000000000000001111111110000000000000000000000000000000100000000000000000000000000000011000000000000000100000000000000011111110000000000111111110000000000000000000000000000001011111110000000100000000000000000000000100000000000000000000000000000000000000000
0000000000000010000000000000000000000000000000001111111100000000000000000000000011111111000000000000000000000000000000000000000100000000000000000000000000000001111111111111111100000000000000010000000111111110000000000000000100000000000000000000000000000000
0000000011111111000000010000000000000000000000000000000100000000000000000000000000000000000000000000000000000000000000000000000100000000000000010000000000000000000000011111111100000001111111110000000100000001000000001111111100000000000000000000000000000000
0000000011111110111111110000000000000000000000001111111100000000000000001111111100000001000000001111111100000000111111100000000100000000000000011111111100000000000000010000000000000000111111110000000100000001111111110000000100000000000000000000000000000000
0000000000000001000000010000000000000000000000001111111100000000000000001111111111111111000000001111111100000000111111110000000100000000000000010000000000000000111111111111111100000010111111110000000000000000111111100000000000000000000000000000000000000000
0000000000000001000000000000000000000000000000000000000100000000000000000000000100000000000000000000001000000000000000101111111000000000111111110000000011111110000000010000000011111111000000011111111100000001000000100000000000000000000000000000000000000000
0000000000000001111111110000000000000000000000001111111100000000000000000000000100000000000000001111111100000000000000001111111100000000111111110000000000000000000000001111111100000000000000000000000000000000000000010000000100000000000000000000000000000000
0000000000000000000000000000000000000000000000000000000000000000000000001111111111111111000000001111111100000000111111110000001000000000000000100000000000000000000000001111111100000000111111110000000011111111111111110000000000000000000000000000000000000000
0000000011111111000000000000000000000000000000001111111100000000000000001111111011111110000000001111111100000000111111110000001000000000000000010000000000000000000000011111111100000001111111110000000000000000111111110000000000000000000000000000000000000000
0000000000000000000000010000000000000000000000000000000000000000000000000000000011111111000000001111111100000000111111110000000100000000000000011111111100000000000000011111111100000001111111111111111100000000000000000000000000000000000000000000000000000000
0000000011111111000000000000000000000000000000000000000000000000000000000000000000000000000000000000000000000000000000010000000100000000000000010000000000000000000000011111111100000000111111110000000100000001000000000000000000000000000000000000000000000000
0000000011111110111111110000000000000000000000000000000000000000000000001111111000000000000000000000000000000000000000010000000000000000000000010000000000000000111111110000000111111111111111110000000011111111000000001111111100000000000000000000000000000000
0000000000000001111111110000000000000000000000001111111100000000000000000000000111111111000000001111111100000000000000000000000100000000000000010000000100000000000000101111111111111111111111110000000100000000000000000000000000000000000000000000000000000000
0000000011111111000000000000000000000000000000001111111100000000000000000000000011111110000000001111111000000000111111110000000100000000111111110000000000000000000000001111111100000001000000000000000000000000111111110000000000000000000000000000000000000000
0000000000000010111111110000000000000000000000001111111100000000000000000000000000000000000000000000000100000000000000000000000000000000111111100000000100000001111111110000000000000000000000100000000011111101111111110000000100000000000000000000000000000000
0000000000000000111111100000000000000000000000000000001000000000000000000000000000000011000000000000000100000000000000001111110100000000111111101111111100000000000000000000001000000001000000011111111100000000000000000000001000000000000000000000000000000000
0000000011111111000000010000000000000000000000000000001000000000000000001111111100000000000000001111111100000000111111100000000100000000000000011111111100000000000000011111111000000001111111110000000100000001000000000000000000000000000000000000000000000000
0000000000000010111111110000000000000000000000000000000000000000000000000000000100000001000000001111111100000000000000011111111100000000111111110000000011111111000000011111111100000000000000011111111100000000000000100000000100000000000000000000000000000000
0000000011111110111111100000000000000000000000000000001100000000000000000000000100000001000000000000000000000000000000011111111100000000111111110000000100000000000000000000001100000000000000001111111000000000000000010000000000000000000000000000000000000000
0000000000000000000000000000000000000000000000001111111100000000000000000000000011111111000000001111111100000000111111110000000100000000000000000000000000000000000000011111111000000010000000000000000000000000000000000000000000000000000000000000000000000000
0000000000000000000000010000000000000000000000001111111100000000000000000000000011111101000000001111111100000000111111110000001100000000000000100000000100000000000000000000000000000001111111110000000011111110111111101111111100000000000000000000000000000000
0000000000000001111111100000000000000000000000000000000100000000000000000000000100000011000000000000001100000000000000011111111000000000111111101111111100000001111111110000001011111111000000101111111111111110000000100000001000000000000000000000000000000000
0000000000000000111111110000000000000000000000001111111100000000000000000000000000000100000000000000000000000000000000101111111100000000000000011111111100000000000000111111111111111111111111100000000100000010000001000000001000000000000000000000000000000000
0000000011111111000000000000000000000000000000001111111100000000000000001111111100000000000000001111111100000000000000000000000100000000000000011111111100000000000000010000000000000000000000000000000000000001111111110000000000000000000000000000000000000000
0000000000000000000000000000000000000000000000000000000000000000000000000000000000000000000000000000000100000000000000011111111000000000111111111111111111111110000000010000000000000000000000001111111100000000000000100000000000000000000000000000000000000000
0000000011111110111111100000000000000000000000000000000000000000000000001111111100000001000000000000000100000000000000101111111100000000000000000000000111111111000000010000000000000000000000000000000100000001111111110000000000000000000000000000000000000000
0000000000000000000000000000000000000000000000001111111100000000000000000000000000000000000000000000000000000000000000000000000100000000000000010000000000000000000000101111111000000000000000000000000100000000000000010000000000000000000000000000000000000000
0000000000000000111111000000000000000000000000000000001100000000000000000000000000000011000000000000001000000000000000011111111000000000111111010000000000000001111111110000010011111110000000011111110100000000000000010000001100000000000000000000000000000000
0000000000000001000000000000000000000000000000000000000000000000000000001111111111111111000000000000000000000000111111110000000000000000111111110000000000000001111111110000000100000000000000001111111111111110111111110000000100000000000000000000000000000000
0000000000000001000000000000000000000000000000001111111100000000000000000000000100000010000000000000000100000000000000001111111100000000000000011111111100000000000000101111111011111111000000000000001000000000000000110000000000000000000000000000000000000000
0000000011111111111111010000000000000000000000000000001000000000000000000000000000000001000000000000000100000000000000011111111100000000111111110000000100000001111111110000001111111111000000010000000000000000111111110000000100000000000000000000000000000000
0000000000000000000000000000000000000000000000000000000000000000000000000000000000000000000000001111111100000000111111100000000000000000000000001111111100000000000000001111111100000000000000000000000100000000111111110000000100000000000000000000000000000000
0000000000000001111111100000000000000000000000000000010000000000000000000000000100000010000000000000000100000000111111101111110100000000111111011111111100000001000000000000000100000000000000111111111111111111000000000000001000000000000000000000000000000000
0000000000000000000000010000000000000000000000001111111100000000000000000000000011111111000000001111111100000000111111100000001000000000000000000000000000000000000000000000000000000001000000001111111111111111111111111111111100000000000000000000000000000000
0000000000000000000000000000000000000000000000000000000000000000000000000000000000000000000000001111111100000000000000000000000000000000000000100000000011111111000000101111111100000001111111100000000000000000000000010000000100000000000000000000000000000000
0000000011111111111111110000000000000000000000000000000000000000000000000000000000000010000000001111111100000000000000010000000000000000000000011111111100000001000000011111111011111111000000000000001000000010000000000000000000000000000000000000000000000000
0000000000000000000000000000000000000000000000001111111100000000000000000000000011111111000000001111111100000000111111110000000100000000000000011111111100000000000000000000000000000001111111111111111100000000111111110000000000000000000000000000000000000000
0000000011111111111111100000000000000000000000000000000000000000000000000000000000000001000000000000010000000000000000101111111100000000000000000000000111111111000000010000000111111110000000000000000100000010000000101111111000000000000000000000000000000000
0000000000000010111111110000000000000000000000000000001000000000000000000000001000000010000000000000000100000000000000001111111000000000111111101111111111111111111111110000000111111111000000011111111100000000000000010000000100000000000000000000000011111111
0000000011111111000000000000000000000000000000000000000100000000000000000000000000000000000000001111111100000000111111110000000100000000000000011111111100000000111111110000000000000001000000000000000000000001000000000000000100000000000000000000000000000000
0000000000000000000000010000000000000000000000001111111100000000000000001111111000000000000000000000000000000000000000000000000100000000000000001111111000000001000000011111111000000001000000000000000100000001111111100000000000000000000000000000000000000000
0000000000000000000000010000000000000000000000000000000000000000000000001111111100000000000000001111111100000000000000000000000000000000000000001111111100000000000000011111111100000000000000000000000000000001000000010000000100000000000000000000000000000000
0000000000000000111111110000000000000000000000000000000100000000000000000000000000000001000000000000000000000000000000001111111100000000000000000000000000000001000000011111111111111111000000000000000100000000000000010000000100000000000000000000000000000000
0000000000000000111111110000000000000000000000001111111100000000000000001111111100000000000000001111111100000000000000000000000000000000000000010000000011111111000000010000000000000001111111110000000011111111000000000000000000000000000000000000000000000000
0000000000000000000000010000000000000000000000000000000100000000000000000000000000000001000000000000001000000000000000101111111100000000000000010000000000000000000000101111111111111110111111110000001000000011000000111111111000000000000000000000000000000000
0000000000000000000000010000000000000000000000000000000000000000000000000000000000000000000000001111111100000000000000000000000000000000000000000000000000000000000000011111111100000001000000000000000100000001111111110000000000000000000000000000000000000000
0000000000000010000000010000000000000000000000000000000000000000000000000000000111111111000000000000000000000000111111100000000100000000111111111111111100000010111111101111111100000001000000011111111100000000000000001111111100000000000000000000000000000000
0000000000000000111111100000000000000000000000000000010000000000000000000000000000000011000000000000000000000000111111101111110100000000111111011111111000000010000000000000001100000000000000101111110100000000000000000000010000000000000000000000000000000000
0000000011111111000000000000000000000000000000000000000100000000000000001111111100000001000000001111111100000000111111110000000000000000000000011111111011111111000000101111111000000000111111110000000100000010000000100000000100000000000000000000000000000000
0000000000000010111111110000000000000000000000000000001000000000000000000000001100000010000000000000001000000000000000011111110100000000111111011111111100000000111111110000001011111110000000101111111011111111000000100000001100000000000000000000000000000000
0000000000000001111111100000000000000000000000000000000100000000000000000000000011111111000000000000000000000000111111110000000100000000111111100000000000000001111111110000001111111111000000001111111011111111000000000000000100000000000000000000000000000000
0000000000000000000000000000000000000000000000000000000100000000000000000000000000000001000000001111111100000000000000000000000000000000111111111111111111111111000000100000000000000000000000001111111000000001000000100000000100000000000000000000000000000000
0000000000000000000000000000000000000000000000001111111100000000000000000000000011111111000000000000000000000000000000000000000100000000000000010000000011111111000000000000000000000001000000000000000000000000111111110000000000000000000000000000000000000000
0000000000000000111111110000000000000000000000000000000100000000000000000000000100000011000000000000000100000000000000001111110100000000111111100000000011111111111111100000001000000000000000011111111100000000000000000000001000000000000000000000000000000000
0000000011111110111111110000000000000000000000000000000100000000000000000000000100000100000000000000000100000000000000101111110100000000000000001111111111111111000000111111111111111111000000000000000100000011000000100000000000000000000000000000000000000000
0000000000000000000000000000000000000000000000000000000000000000000000000000000000000000000000000000000000000000111111110000000000000000000000000000000000000001000000001111111100000000000000000000000000000000000000000000000100000000000000000000000000000000
0000000011111111000000000000000000000000000000000000001000000000000000000000000100000010000000000000001000000000000000001111110000000000111111111111111111111111000000001111111100000001000000101111111100000001000000010000001000000000000000000000000000000000
0000000000000000000000000000000000000000000000000000000100000000000000001111111100000010000000000000000000000000000000001111111100000000000000010000000000000000000000000000000011111111000000000000000000000001000000010000000100000000000000000000000000000000
