0000101100000000000000100000010000000111000001001111010000000011111101000000101111110011000001101111111111110101000000110000110000000100111011110000000011110101000100000000000000001011111011110000000011110000000001101111001100000111111111000000010111111001
1110111111110001111110100000011000000001000000000000100111111100111110110000101111110000000001110000101000001000111101110000101011111001000000110000101100001001000010111111110100001000000000101110111111101111000010110000111111111110000000001110010000001111
1111101111110111111110000001111111111010111101110000111100001011111011001111000011111101111100001110111011110001111100110000001100010000111101111111111111111101000001000000001011111011110111011111000000001001111010100000011111110011000010100000110011110010
1111001011111011000000101111111000000010000000100000010011110011000011100000110000001011000000010000100111110111111010000000001000000000111010100000011011111011000011010000110111111100000011001111001100000010111010101110110111111001000000000000011100001100
1111011100010010000010001111110000000010111000000000110011111001110110100000000011100110000010010000011111111101111100110000010100000111111101111110111111111010111001010000001100010100000000001110111111100100111100001111111011110010000000001111100011111011
1111100111101111000001000000000000001010111110000000110111111011111011110000001100010001000000100000100000000010000100000000000000000110000000010000100100001000111110010000100111110000000001000000100111110111000010001110101000001010111110010000100000000000
0000100111110010000010110000011000001001000100011111101100000010000010000000100011101001000011011111101111111111000001111111011000001011111011011110110100000110000010100000110011110011000010101111111011111000111111101110110100001011111110110000111000001111
1111101000001111000010011111000100001010000001111111001011111000000001100000110111101110000010000000000100000001000000100000000100000000111111010000000100000101000100000000100011101111000001110000000011111011111110110000010011110001000001001111011011101011
0000011111110100111111001111010000000011111010101111100011110101000001000001000011111011000001110000111000001001111111000000010011111101000001001110110000000100111101110000010111101110000001011110110000000100000001010000001011111101111111011110101100000111
0000110111111000000000110000001100001111111101000000110100001010111111000000110011111111000011011111011100001101000010100000001100001011111100101111101000000000000001010000110111111000111100000001000011101110000010001110111000010001111111100000000000000110
0001001111101101111111010000011000001001000000011111000100001100111100010000111000000111111110011111101000001101000001101111110000001011111111111111100000000010111010100000000011111101000010100001000111100011111110001110111000001111000000000000011100010010
0000101111110011111110110001010111111001000010011110111100000110000101000000001100000101000010000000001100000000000100101111100000000100111110000000110000000110000011001111011100000011000000110000110011111111111100000001000011111101000000000000001011110111
0001001011101110111110110000011000001001111011000000011111111110111110110000010011101100000001010000000100000000111100010000000011111110111111001111000000001011000000111111101000001011111011000001001011110010000100000001000011111111000000111111001000001011
0000010100001101000000000000011000001011000000111111110000001100111101011111010000001001111011000000101100000111000100111111011100011110111011011111010011111101111010010000111000000001111101100001000111110110000011110000011000000110111111100000100100001010
0000010000000111000001001111011100011100000010101111101000010000000001000000010000010000000001010001001100000101000001101111101111111010000000011111010100000000000000001111101100000010111110111111010100001010000100000000010111110001000001010000000100001011
1111100100000000000100010000000000000100111101010001010011111111000010110000011000001110000000011111101100001000000010111110110000010100000011110000101011111111000011110000100100000111111101000000101000000001111111011111100111111110111111011111000011101110
0000010111111100000000010000100000001001111110101111011000000001111111100000001100001101111101110000001100000101000001010000000000000110111010100000000000000000111100000000001100001001000011000000010000001111111100011110111111110010000000110000011011111100
1111100000001001000001011111010000001110111111110000000111111000000001010001001000001100000010100001000100000000000100100000011111111010000011001111011111110001111101010000110100000001111011111111111111111100111110101110110100000000111101000000010100001001
1110111011101011000000000000011000001100111101110000101100001110111010110000010011110100000011101111100011101111111110010000111111111101111011110000011111110001111011110001000011111110111011001111010111111100000010001111001100000011111101000000010011110000
0000000000000100000000110000111100010001000011011110110100010011111111010000101111111111111111001111111011110011000001011111111000010110111100000000011011110010111110110001110011110000111011000000001000000001111110001111110111111001000111010000010000000101
0000010011101110111111110000001100001100111011010000001000000010000011001111111011111000111111100000100111111101111011010000111100001101111011001111010111111101000000110000011011111100111111101111110000000000111111001111010111111111111110110000011000001101
1111110111101101111110110000000100000000111011000000011011111111111011000000111011111111000011010000100000000000111101110000011111111010111011100000100100000011000000111111110111101011111110000000111111110010000001000000110111101011111111100000001000000100
0000001000000011111111010000110111110011111101100000010111111011000000100000100111101110000101110001010111111100111011110001000011111010111110010000000000000111000010010000001000000111111100110000010100000100111101111110100000000010111101001111000011101100
1111101100000011000110100000010000010010111101111111010111110110111100100000010100000000111111100000011000000011111011111111111100000101111011001111001100000101111100100000001111110100111101000000010000001111000010010000001111101110111101101110110111101110
0000101011110110111111010000010000001001000010010000101100000100111101001111010000001000000001101111110000000111111010101111100100000011111110011111101000000010000011110000010111110111111110111111000111101010111010011111010111111100000010100000110100010001
0000110111111011111111100000001111111011111100011110110011111011000010011111001100001111111111000000100011111111111101111111100100001001111010110000110011111101111101010000000000000101111100111111100100001011000010001111011000000110000001100000011111111000
0000110111101101000001111111010000000100111101100000000011110101111010110000010000010000000011110000101011111100111101110001000111111101111011011111010011111011111011010000010000010000000000011110111011110110111100101111101111101110111111101110011111111011
0001001011111010000100000000001000000011111110100000000000001100000000000000111111110000000101011111100000000111111101000000000000000100111101001111001011111001111100000000101100010000111111110000000111101110000100010001000000001100111010101111001111111101
0001010100000011111110010000001000000100111001110000101100001110111111001111001011101010111011100000000011101100111011111111100000010001111101001111011000000010000101110000000011111000111100111111011100010001111111100000100100010010000010000000101100001000
0000000111110100000010101111101000010110000100101111101011111110111010100000101011110001000000011111110011111001111100010000001000000001111100110000111011110001111000100000011100001110000011101111000100000000000001011111110011111110000000000000000111110100
0000001000000000111110100000000100010000111010101111011100010000000000001111001100001100111101101111111111110001111110101111111100001100000010101110111000000001111011110000000000000010111011100000101011110101000000000001000011110100000000101101111100000100
0000011011111000111111001111101100000000111100101111111111111101000001110001101011101000000011100000110100000000000011000000001111110110000011010000101100000111111111110000000111111100111000110000001100010011111111101110111011111100111111111111101100000000
1111110100000110000001011111101000010001111111100000001111111100111110010000001000000111111101010000101011111101111010101111111000001111111010010000011011111111000000100000110011110101111101011111001100010000000010110001000100001110111101101111100100000111
1111010111101101111011100000101100000110111111110000100000000000000011100000101011111000000011011111111111111010111111000000110011111111000001011111101000000000000001001111110111111111111101000000000011111001000011101111111100010000111110100000000000001100
0001000111111011111011001111100100010011111111110000101111111100000010111111110011101011111111111111110111111100000100001111100100000001111011000000010000000000111110101111100111101011111111100000100000000101111110110000100000001011000000100000010100001011
0000100000000001000100001111000100010011111011110000000011111010000001011111111111110101111111000000000000000100000011011111000000010101111011001111001000000110111111111111100100010000111110100000011111111111111101101111011011101101000100101111010000000100
1110111100000011000000001111110000000000111001000001011111111100110110011111011000001101000001010000110011111110000001010001000011110010000001101111010100000010111110010000000011110111111111010001001111111000000100010000100100010011111111001111011100010010
0000111100000110000000110000010000001111111101010000100111111001111011110000000011110000000100100000000011110010000100100001000011111000111110011111011111110011111101100000001100001000000001000001001100000001000100100000111011111110111101100000001011110010
1111101111111000000111000000100000001101000100011111100111111111111001110000010100000000111110100000010000011001111010101110100100001000111110101111110100001110000011111111101100001111111111010000101111111101000011100000010100001100000001101110001000010000
0000100011110000000101101111001000001101111010101111110111110111111110001111111011110001000000010000001011111100111010101111001100001010111010101111110100001011111111000000001011111000111101111111111011111000000000000000000000000101000010011110100100001100
0000001000000100111110111111011000000100111110011110111011111010111110000000110000001111000001010000110000000110000001100000011111111110000011111111011011111100111011000000011000000011111101001110101111110000111100101111001011111000111111011111000000000100
1111010000001001000010110000000100001110111111010000001011111000111100010000010111110100000001100000010011111110000100101111010000000010111011100000110000000000000011111111101000010000111101101110110000000110000001110000110011110101000001111110101111110101
0000101011110010111110111111101000001001111100101111001011111111000100010001000100000111000000000000011000000111000000100000010000001010111110011111110011111010111100010000101011111001000000101110110011101011000011000000110000001110000010110000011011110101
1110101000010000111101000000011000001100000100110000101111111011111110011111111000001000000010100000000011111000000011000000010100000011111011110000110111110110000101111111110111110010000010000000000111110000000011011110101100001011111111001111111011111010
1110110111111010111011100000111000010110111011101111001011110001111011001111110111101101000100111110111111110111111110100000111111111111000100010000000111111010000010011111100011110001111011001111101100000000111110111111101000010001000001010000010011101111
1111000000001100111111011111110100001010111101100000011011111100000011100000100011111010111110110000001011111110111110001111010111111100111111010000101011101101111111100000100011101101111100001111010100000000111110001110101011111010111101101111111011110000
0000110111111101111111001110010000100100111110111110110111111001000010100000010111110101111101110001011000010011111110111111010100010000000100010000010100000001000000111111110000001101111100101111111100000101111010111111011000001111000001111110111111110000
0000110011101110000011011111101000010111000010100000110000000100111010001111100100000001111001110001000000000011111100101110110100010111000010001111001100000100000010010000010011111100111100101111110100001111111110011110111011111011000010010000111000000111
0000001100000110111110110000100000010000000010101111100111110111000000000000111011110010000000001111111100001000000010111111011100000010111110011110111100000001000100000000000000000111000101010001000111110101111011011111111100010100000001001111010111111110
1110111100001011000000101110101100011110111110000001000111111101000011010000011000000011111110000001110100001001111011101111111000001101111110111111010100001000111111101111010100001110000010101111100000000011000010011111101000000000000100011110110111110100
0000001100000000111111101111101000011010000001001111101011111000000001001111110000000001000000101111110111101010000011100000101000000101111011100000110100000011000001001111100100000001111011111111001011111001111010111111001100001000000001001110000011101010
0000111111110111111110110000101100010001111011111111101100001110111110001111101100010000111110101111000111111001111101110000100100000001000010101111111000000001000001010000110100001000111110100000000000001111111110100000110111111011000010101110110100010000
0000000011110000000100100000011000000011000000000000101111111101111001111111100111101000111110000000000000000111000010001111110100010101111111001111111011110101000001110000010111111101111110000001000111101010000010010000101100000110000000101111011000000100
1110110100001111111111110000101100001011111011111110100111111001000000010000100100001001000101010000001000000000111011000000001000000001111011110000110100000000111011111111011111111000000010100001001011111010000100010000111011110001000001011111000100001011
1111001011101011111101110001100100011000000000010000000111101010000000000000000100001010001001111111000111110111111111000001110000000000111110110000000111111011111010111111100111101001111010111111000000000101000001100001000000001001111111101110110011101011
1111000100001101000111100000100000000111000011100000100000000000111001000000001111110000111101000000000100001101111100101111010000001000111101001111101100001000111101000000001011110101111010111111001100001000111010110000111100000010000001101111000011101100
1111010111110000111001111111110100010001111111100000100111101101111111001111000100000000000011111111101111110010000100010000011100011101111011110000100111110101111111101111110000001101000001110000110100000100111110111111111011101001000001010000001000001001
0000011011110111111110100000000000010101111100000000100111110000111101000000010000001010000000110000001000000110111100100000001000001010111110001110110011110100111101101111110000001110111010110000111011110110000100011111110011101000111111100000010011111010
1110101000000110111111110000000111110111000011101110111111110101111011000000111100000001000011101110110100000111111100010000000111110100111100110000011100000001111100111111000100000110000010101110111100000001000011111111100011101010111111101111110011101110
1111001011110100000110000000111011111111111101010001000011110111111011100000011111111011000000001111110100000111000010101111100011111001111111010000010100001011000010101111110011111001111101010000110011110001111101111110100111111101000000110000101100010000
1111001000010001111111101111100100001011111101010000110011110110000000011111110011110001000001111111110000000111000001100000011000010101000001011111110100000100000100100000000011101100000000011111111111110011111111110000001111101110000001110000100100000000
0000000000000110000011111111100000011010000100000001000100000000000000101111101011101100111110110000011111111110000000111111010100010101111010111111011000001000000000101111101011110010111100111111000000000001000010010000010111110110000011101111100111110101
1111101000001111111111001111100100000010111110010000110111101001111100111111001100000100111110000000010111111011111111000000010000010100000011111111110011111001000010100000001000001110000011111111111100001001111010110001000111110001111111100000100111111010
1111000111101111000001100001000000001011000000101111101100000000000011010000001111110000000110111111100011111101111011010000011011111000111100111111001000000010000000001111110111111010111100011111010000000110000011001111101011110101111111010000011000010001
0001000100000001111100001111100000001111111110111111101111111011000010110000000011101000000000000000101011111110000010101111100100000000111111001111100011111011000000001111001100010001000011101110110011111000000100000000101100000001111111111111110100001101
1111011100001001111110010001100100010000111110110000010011101000000010100000110011101010000100101111001011111101000010110010011011111011111110011111110111100111111110001111111111101111111001100000001000000111111110010000110111110000111100110000110011111101
0000110100001000000000001111011100000010111110010000000011111111111011000000001111111101111110001111100000000011111100011111110100001011000001000000001011111011111111000000001011101100111111110000001100000001111101111110101011110111000000111111101111111101
1111000011101001111110101110101100010100000001001110111111111100111001101111001011101001111101000000110000010000000000011111100000100101000011100000110000001000000011101111011100000100111111000000110000001110111101000000100011101100000110011111011111111000
1110111000001101000001011111001111110111111100110000110100000111111011110000010111101011111110101111011100000000000010111111011011111011000011011110011000001100000000000000110000001001111101110000001111101110000010000000011011110111000000111111100011111100
1111100000010010111100100000110000010010111101101111101011100001000000000000010100000000000100011110110111101100000100100001111000000000000001001110111011101101111101011111100011111101111001011111101011110010111010100001011111101100111110110000101100010100
0000100000000101111111111111001000001011111101011110110100001111111100110000001111111100111110010001000000001100000100001111101011111011111110100000100111111100000000101111110100001101000001010000001100001101000000001111100111101000111101101111010100000000
1110101000000010000011001111101100000111000010011111110111111101111110100000100111101100111111000000111000000110000001111111101000000011111101001111110100001100111100110000000011110100111101000001000111101101000011011110101100000001000010001111111000000010
1111011100001100111101111111100100000010111101101111001111111011111110110001000100001010000001000000010000000100111100000000101111111000111110010000101100000101111111000000100111111100000010100000111000001000111101011111001111110001111101101110111100000011
0000100000000110111100011111101000001100111111001111100011111000111110100000010111111011000001010000000011111001000010100000001111110110000000001111001000000000111101101111010100001000111111000000110111111010111100010000000000001000000011001111110100001000
1110111011110000111110100000010100010001111101100000111111111000111011100000101000000010111111111111011000000000111110010000011000000011111110011111101111110110111111100000001100000110111111011110100100001100111111100000001111101001000000011111111111110000
0000111100001001111011110001100000011001000001011111011011100010000000010000000000010000001001001110111111101000111110010001111100000000111011100000111111100111111100111111100000000000111110001111110011110001111100000000011100000001111101111111101000001111
1111001000001001111100100001100100010000111100110000111111100101111100000000000000001101000111101111011111110101000001000010101011111001000011011111101111101100111111101110101100000110000000010000101011101110111010001111111111101101111101100000111011101010
1110110111111110111100011111110000001100000100010000000111101111111110001111111000001011000010010000010011110010000001100000000000001000000100011111101111110000000100001111010011110110111011110000001000000110111101010000000000001111111101100000001011111010
0000101111101101000000111111001000010011111110011111000111110110111101010000100111110111111101010000001100000111111101011111110000011010111100100000011111110100111101100000001100000110111101110000111000001001000000001111000011101000000001000000010111110100
1110101011111111000010010000000000000110000010110000101011110110111001010000000111110100111100100000001000000010111011101111111100001011111011111111011100001000000001111111110100000001111101100000101000000000000011000000000011111000000001011110110100000101
1111001111101110000001101111110011111101000001011111100100000001111011100000000011111010000000110000001100001101111011001111111000000101000000000000100000010000111111101111011111101100000011000000100000000110000001001110101011111111000010001111100011110101
1111111111111011111110111110110000001001111011111111011111111011111111001111111000000110111000010001111000010011111111011111001100100001000001100000000111111110000011110000000000000000000010011111101011101011111110011110101100000101000101110000101111110000
1111100000000101111111111111011000000011000010100000111111111110111110100000000011110101111101101111110111111000000001111111011100000000111010100000000011111011111110101111011100000110111010111110110011101010111110010000111111111100000011101110110000001111
1111011100000011000001001110110000001011111011100000100111110001000100001110111100001001111110110000110100001011111010001111110100011000111111111111101000001111000001011111111000001000000011111111111000000000111101000000110011101011000101100000001100001110
1111100100000011111011010000000000000000111011110000010000001000111001000000011011111000111110000000110100001101111110001111001011111100000011010000100100000101111100001111010000001111000010101111101000001110111101000001000111101110000001010000111100000100
0000011011101110111110000000001100000000111011011111010111110111111111110000001011101111000100100000001111110110111111110001001011111011111111011110111111110111111110001111110011110101111110101111001011101010000000110000010100000110000000101110101100001111
1111011100000011111110100000110000000111111110111111011011110000111101110000001111110100000000111111011011110110000000000001010100000000000011111111100111110101111110101111011000000101000011010000101000001010000011111111110111101010000000011110101011101110
0000100111110011000000110000000000001001111100110000101000000000000000000000000111111010111100010000010000001001111101001111100000000100111111010000001000000001000000100000010011110011111111101111110011101011000010111111011011111100000000101111110000000110
0000110000001100111011000000011000010011000001100000010011011111111100010000000011111010000010000000011111101101111110110001011011110010111101011111000011110000000010011110111111110100111110101111000011101100000000101110101111111100111101000000010111101010
0000011100000100111111111111111011111111000010100000101100000010111110111111111000000000000000000000000100001000000001100000000011110101111110010000010011111111000010011111111000001010111111011111110100000000000001000000111100001011111111110000000000000111
1110111000001010111101100000010011110111111100011111000011111101000000000001010111101000000100011111101000000101111111000000011111110100000000000000000000001101111010100000101011101011111110110001000000001100111010101111111111110010000000010000000100000110
0000011011101011000001101111011100001011000010000000001000000010111110011111110111110010000000000000001100000101000011011111111000000001111011110000100000000001000011011111111011110011111011010001000111101001111111000000111111110000000011001110011111101000
1111000111110001111111011111101011111101000000000000111011111010111101010000001011111100000100111111011000000000000000000000011000001001111011111111001100000011000001101111011111111101000011010000000000001101111101000000110000000000000010001111100011110001
1110110111110010111111111111000100000100111110000000001011111011111101010000001111111101111110100000001100000010111111111111110100000110000000001111011000001011111011111111110011101110000000011111011000000110111101100000101111110111000011101110101111110001
1111101000000001111011000000000100000001111011011110101111111001000000110000100111111010111111101111111111111110111101011111111111111110111010101111000011111100000001111111000011101100111110100000001011111101111011101110110011111010000000101111011000000001
0000000011101110111111011111110100000111111111110000100111111001111010110000101011111011000010101111111000001000000000000000100111111101000100010001001000000110111100101111110111111000111101101111001000000100111110101111000011111001000001001111101011101110
1111010100000000111101000000011000000101111110000000000011111001000000000000010111101011000011011111100000001011111011010000110000000010111110011111110011110110000001001111100100000111111011110000000011111001111011001110101000000011111110111111101000000001
0001001000000000111101100001010111111101000001110001000111110000000011011111101111110101000000101111001111110011000000010000011111111001111100101110110011110000000000100000011100001111111011111111101000001110111111110000010111101111111111001111111111110011
0000001000001011111111111111101100000111000000001110011100000011000001100000010111111000111101110000100000000000000001100000001100000001000010010000110000000101111100101111100111110000111010111111000111111111111011110000000000001110000011101111000000001111
1111000000001011111111111111001100000101111100111111111111111111111111010000001111111101111100010000111000000101111110111111110000001000111111111111001000001001111011101111100111110011000000101111001111101110000010101111110111111111000001110000001011101010
0000110011101011000000101111101011111111111110010000001011111000111110000000000000000000000000100000010011111110000011100000111011110001111110001111010111110110000000000000100100001111000011001111000111101000111101011111010111111101111110101111100000001000
1111100011101111111110000010001000000000000000100000010011100010000010111111010100001111000101001110011011110101111011010000111111101111000001000000011011011111000000011110101011110101111100100001000111111101111101101111100111111001111010101111011111110011
1111100000000111111111001111110000000010000001011110111000001101000011111111011111101111111100010001100000000001111011111111011100010111000001010000001100000000000010100000010100000100111111000000101000000101111011001110110011101011000001001111110000001001
0000011111101010111110111111011000000001111011001110100111111100000000010000110000000000111111100000011111111111111011011111110000000000111100000000100100001010111010010000011000001001000001001111100111101010000010110000100011101110000001011110111011101100
0000011100000000111101001111100000000011111001111111100011111101000000110000100111110000000010110000111100000100111100100000110011110001111100100000001000000100111111110000011111101101000010111111111000000100111101010000111000001101000000000000111011101111
1110110100010010111101011111011111111101111111010000110111110111111100010000111100001100111110010000110011111010000100011111110100000010111011100000110100000011111100100000101011111110111101011111111111111110000001011111000111101110111110100000000011111010
1110110011111100000001000000110011111111111101101111110111101011111101110000000100001010000010001111101011110110111110100001001111110111111101000000100100000000000001000000010100001100111111101111000111101011111011011111101000001011000001110000000000000111
1111111011110100111101100011100111111100000010101111100111101101000010111111010000001100000101101110011011101101000100010001001011100111000000000000000011011110000001111111001100000111111111101111001100001010000000010000011100001000111011111111001100001100
1111100111111001111100100010100000000011111101101111100111101101111101101111111011101110000110111111001111110101000001100001001111101110111111111111111011110100111110001111111011110011000010001111101011101110111100100000111011101100111100100000110000000000
0000101100001101000000000001001100000111000011000000010111111000000001000000001000001100000001011111011011111111111011110000100111110111111101100000001111110010111010101111010011111001000011000000000000000000111101111110100100001001000000010000111111111010
1111110000000110111100000001100000010011111111101111011011101001111101110001110111110111000111011110110111111001111101100010111011111100111110111111111011100000000100111111010011110011111111111111101011101011111111001111000011110100111100011111000100001111
0001001000001100111110111111110100000011111110100000010111111110000011101111011100000000000000000000111000001010111110101111101100000100111111100000101000000011111100111111111100000100000011010000000000000000111110001110110011110001000000110000111000001110
1110101000001001111110011111100000001000111101000000000011111011111110010000010111111001111110110000000100000001111101001111111011111100000100010001000111111111000010111111000111110011111101011111100000001010000100010000011100001100000010001110111100000100
1111000111111010000001101111001011111111000000111111111100010101111110100000110111111100111100000000111100001000111010111111010100001110111011011111011111110100111110010000110011110110000000101110100100000010000011101111000000001011111110100000101100000101
1110100111111000000010011110110100000100000001011111110011111000111011000000101011101101111000001111100011110111000011011111001100010100111101001111000011111101000001010000011111110010111100111111111111110110000100011111100111110000000000000000000100000101
0000001011110100111110111111100000010000000001010000000000000011111100011111101111101110111010100001101100001011111101111111111100011011000010110000110111111111000011100000001111101100111010110000110000000111000010100000111011111110000100011111100000000011
1111001000000000111100001111111000001000111010111111111000001110111100111111111111110111111111011111100100001010111110101111100000000010111110010000001111101101000011011111101011110001000000001111011111110110000011001111011000000001111110100000011100001000
0000100111110101000000000000000011111011111101011110110111110100000000100001011011101010000000010000000011111011000100111111110011110010111111111111110100001010111110100000100100001111111100001111010000000111000000111110100111101011111111001111000011111010
0000111000001001111101011111101100001001000011101111000000001000111100001111000011111111111001010000100000000100000100001111010100011001111111001111001100000000111100111111111100000011111110000000110011110010000100001111000111101111000001001111001111111111
0000010011110001000000111111110000000011000000011111000100000000111111101111110111101010111101000000011100000010111100001111101100001001000001100000100011110101111110100000101111110010000010001111111011110001000000110000000000000001111110111111101000000101
0000010100010011111100000010000100001010111101110000000011110010000010101110110100000101000110011110101111111010000000010001001111101101000011010000000011100011111100001111101111110001111011001111101000001110000011011110110111110000111111111111111011110110
1111100011101011111101010000000000010001111110001111110111111001000011100000011100000010111110111111011111111111000101010000011111111101111010111111111011111110111110001111111011101110000000111111001011101100000011000000011100010001000010111110110111111101
0000111100000101000001100000100011111011000000100000010100001111000000100000010100000000000010100000101000000000000000111111100111111010000100100000000011111011000011010000011011110111111101111111011111110111111101101111010000000011111110111111000000001001
0000100000001001111110100000001000000010000011100000100000000111111011100000100100001101111101100000100000000011000100101111101100001000000000001111000000000110000010000000101011110010000011011110101011111001000011100000111000000000111110110000000100000010
1111011011101110000001010000000000000100111111011110011100000101111110011111101100001001111111010000001100001100000010100000000100001001000010010000111100010011000010011111100100001101111100111111010100000011111011001111011111110100000000000000001011110011
0001001000001010111101111111100100000100111010111111000000000000111010110000100111111010111110110000001100000000000100101111100100000010111011011110100100000011000011110000001100000101111110101111101000000000111011100000101000001001111111101110001100010001
0000100111110110111101101111111100010111000011100000010011110011111101101111101111110000111110001111010111111011111100010000001100000011111011101111110111110011000001011111100100000111111011101110100111110010000001110000001111101110000000011111100000000001
0000011011101110000000100000001111110111111110000000101111111101111101110001000000001000000000000000100111111110000001101111110011110110111101001111111100001001000100000000100011110101111101101111111111110110111100101111001011111001111110111111000100000010
0000001011101001111111110000101011111011111110000000110100000010000000011110110100000000000011001111100100000010111101100000101000000000000011110000010011111000111111100000000011111000111100000000011111101110000011101110100111111111111101011111101100000000
1110101100010000000010000001010100000000000010000000000111111001111011010000010011110011000000111111011011111100111011000000111000000101111100111110011011111010000100000000101011110111111100001111010011111011000100100000111100000100111111001111100011101010
1111010000000001000001011111111100000001000001101111001000000011111011100000001111101001000010001111100100000001000000000000100100010011000010110000001000001101111100010000010000000010111110000000100100000100000000011111111011101110000101000000010011110101
1110110111110100111110111111111000001000111100001111010011110101000010110000000011111000111111010000000000001011111100101111111111111011000000100000101111111100111011111111101111111101000011010001000111110001111011000000000011111011000010101111010000001100
1111010100000110000010010000000011111111000100000000000000001001000001111111111011111111000000001111110011111001111111010000100011111011111101001111001011111000000011010000010011101010111100001110111111111111111101100000011111110001000000101111001000010001
0000010000000110111111110001010111111010111110011111001111110100000100001111100100000111000100001110101100000000000011100000011111111001111100001111011111101110111100010000000111101111111110011111011011110001111110100001000011101110111101100000000011110011
0000111111101000000001010001010111111111000000000000110100000001111110001111001011110101000010101111101000000011111101000000010011111000000000010000101000000111111110100000001111101110000001111111110111101100000001001111100011111110111110101111001000010001
0000001000000101111101111111110100000011111011001111001011111011000001000000101000000111111110010000001111111111111110011111011000000010000010010000001000000110000100100000100111110001111110100000101011110011000011001111000100000000111101111111010100001000
0000011000000111111101100001010000000000111110101110100111111100000010000000100111110111000100101111011100000001000001000001010111110011111011100000110000001010000010111111111100001010111101001111010011101000111010110000110011111000111111100000000000001111
0000010000010000111111110000101000001010000010011111110011111001111101010000101111111111000010011111011011110110000000000000100111110111000010111111001111110110000100000000011000000000000010001110111100000011111101111111010000000100111101101111110100000001
0000000000001010000000000010011000001100000010001110101111110001111011001111100100010000000011101111001011111101111110110000111000000011000100001111010100000010000000000001101111110100000000100000011011101011111100110000101000000000000000000000000000000000
1110100100001010111111100001010100000000000001001111011111111100111110011111001100001011000100011110101011111000000010110001101011111101111011101111100011101111000000010000000000000000111110111110111000010000000000001111010100001111111100100000000011111001
1110101011110000111101110001011100000000111100100000110011110101111100010000001011111110000101111111011011111110000000110000111011101101000011001111101100000011111110100000000111101010111101001110101000000010111111011111011100000101111100100000101100001110
1110110111111100000001110000101111110110111110100000100011111011000010001111101011110110000011001111000000000000000001101111111011111100111101111111100111110111000000010000001011101101111110000000110111101110000001001111000011111111111110100000100111110101
0001000100001001111011000011001011111100000010100000000011110000000010011111010100000100001010011110110000000000111110010001100111101001000001010000011111101010000100101111101011110001111101100000000111110111000011000000000000000111111011101111101011101110
1110101011110111111011100000010100000010111100110000100011111001111100001111011000001100000000101111101100001001111010001111111000001111111111111111001011111010111101100000000111110011111111001111101011110111000000110000110100001001111110011110111011111001
0000000000000010111100100000010100001100111110110000110100000110000000001111111011111000000001111111111100000101111110100000010100001111000001100000011111111000000000110000100000000010111100011111011100001000000011000000100000001010000000000000001100010010
0000000000000010000000111111100011111101111111010000000011111110111011101111100111110100111110011111010011110111000000110000110011111010000000011111111111101111111011100000000000001101000010010001001000001101111100000000101111110000111101110000101100000010
0000111111110100111110101111110000000110000000110000000111111111000000000001100000010001111100101111011011111000000000100000010100001001111110011111101111101101000011010001000111111100111110110000101111101111111110101111110100001011111101011110111011101010
1111110011111101000010001111110000001100000001000000100111111101000011000000100000000000111010110000010000000001111011101111100100010101000010101110111100000001000001100000000100000101111100000000000011101111111110100000001100001011000010011111101100000000
1111111100000111000000000001110011111100111101000000011100000000111100100000000011110100000100101111110000000000000100100000110111110011111110001111011011111110000001101111010100010010000011000000100011111011000010111110101111101100000000010000101011110001
0000100111101111000001100001000000000010111100011110100111111101111011110001011000001100000001111111101011111101111110100000101011111110111011110000110000001010111010100000111000000100111110101111110000000111111011100000000100000100111110111111011111110111
0001000011101111111110010000010000000100111111111110100000000100000010010000011011110101111010000000110000000001000010011111111100001100000010110000011100000100000011111111111011110101000001011110110011111001111111010000000100000011111111010000100000000011
1111011011110010000000000000000000001000111011001111000011111110111111011111011100000001000000000000010011111000111101110000000000001101111010110000001011111010111111100000111100000010111100000001000100001010111011111111101100001101111101110000011000001010
0000111011101100111010100010011000000100000011001111101011101110111100101110110000000100001000101110100100000000111111010001001111101001111110100000101011101101000011101111000111110101000000001111111100001100000100010000000100000000000000001111100011110111
1110111011101100000001010000110011111101111010100000000100001100000001010000001100000000000110011110111111101100111011110000111011111110111111011111001111111100111010000000010111110100111111001111011111111000000010100001010100000100000001100000111100010000
0000000000000100111110100000011111111010000000101111001000001001111100101111101111101011111110110000011011111100000000000000001011111100111100011111100011111110000011100000110000010000111010100000100100001001000011110000101011101001000000001111100000000001
1110111000000111111110110000001100000110000010101110111100000000000011101111111011110001000000100000000000000100111010010000000000000001111010011111101100000011000000110000011111101011111111001110110111101111111101101110101011101101111101110000100100001100
0000011000001011111111110000011000001010000100001110111000000001000010111110000111111010000000100000000100000111000011100000011100001001111101100000001011111101000100001111010011111001111101111111100111111111000011101111100000000100111111101111010111111111
1110101000000101111110010000001100001001111100011111000111111011000001000000010111101101000000011111011011111110111010000000001011111011111110111110110011111100000100101111111000001111111100010000000111111100000011001111001111101100111101101111111111101000
0001001011101101000001010001010100010011111110010000011011111010111100111111000111110101000111001111101000000100000000010001101011100110000001001111101100001011000000001110011111110010000000110000001111110110000000100000100111111110000011001111101100001101
1111010111111001000000100000100111110111111011111110100000000101000011110000111111111000000010101111101111111010111010100000010111111011000100010000100000000100111101110000111111110101000000000000100111101011000010001110101000001000111110011111001011110011
0000000111110011111111100001011111111111000000110001000011110001000010001111010111111111001010011110111011110111111100010001110111110010000011111111011111110111000010001111001111111100111011011110111011111011111111100000001100001011111110001111011000001000
0000001111110000111111010000000111111101111100101111110100000000000001000001100000001100000000110000000011111101111111011111111011111111111110001111001000001101000011101111110000000001111101010000010100000010000100101111001111101111000010101111000011111111
1111110100000101000011111111011111111111000001011111000100000000000011010000000111111010000000100000001111111100111100110000001100001001000001001111001100000101000010110000110011111011111111001111011000001000000011011110110111101001000000100000101000000101
0000111000001111111011000000100100000000111010111111011011101111000001011111101111110110000010001111110111111110000000000000000011110110000001010000000011111110000010001110011100000111111010110000001111111010111011111110101011111010111110011110110111111100
0000110011110010000010001111010011110110111010011110101111111100111010101111011100000100000001110000000011111010000001100001000000000010111011010000010011111001000000010000010000010010000100010000010011110010111100111111111011101100111111111111010000010001
0000010111101010111011110001101111111100111100001111000111101101000000110000011111101110001010001111110000000000111101010001101111101101111101011111101011110000111010111111010011111001111101001111011111101101111110111111111011110010000000000001000111110100
1111010100001101111100100000111000000001111101000000011000000000000001001111001011110100000100001111011000000100000001110001010011111011111101001111110000000000000100001111001000000000000010100001001000001111111111111110111011110101111111001111111011110100
0000100011101100000000000000000000001001111101100000101111111101111110110001000011110011000000110000010011111101000100001111101000000010111111010000010011111101000010100000011000000000111101110000000100000110000010000000000011111011111110101110110111111101
0000011000001011111110110000000000000011000001100000101011110101111110111111101100001100000100010000000000000010000000010010001111111101111100010000101100000000000011001111101011110010111110011111001100000011111100111111111111110111111110001111000011110010
1110101011111101111100110000110000000000111110010000000011110100111011010000000011101111000101011110110111111010000011100001000111110001000000001110110111110001111101001111010111101111111100100001001100001110000010010000111111110100111111011110111011110111
1111110011101101111110000001110000000010000001111111101011111001000011100000100100001010000001001111110111110110111110110000100100000000111010010000100111111100000010110000101100000000000011000000011111111001000011111111000011111101111100110000100000000000
1111100111110110111011010001000011111010000000010000001111110011111011000000011111101000000110011110111111111010111011000000110011110011000000110000111011101001111010101110101111110001111101001111001111111101000100010000001011111010111111100000000100000001
1111101100001010111101110000110011101111111100011110111111111111000001010000111000001011000110001111011011111100000010000000010011101111111011011111110111111110000000111111111011101011000000001111100011101100111110000000000000000101000010001111111100000010
1111101011111000111111110001010011111101000000101110110111110101111111000000010111101011001001001110111111111010000010000000101111110111000000111111000111110111000011101111011000000001111101010000010111111000000000011110101000001010000000000000111111111010
1111000100000000111011010010101000000110000001110000110111101101111111111111101000000000001100011110110011111100111111010010111011100001111110010000011011110010000001001110010111110001000000111110111011110000111010100001000000000101111110111111101000000100
0000111111110111000000100000101011111001111101011111001111101111000011010000000111110000000100101111100111110101111011000000010011111111000011011111000111110100111100010000000000010000111110010000110100010000111111101111011111110000111111101110110111111010
1111001111110001111111010000000000001100111001100000111011110010111110010000011011101101000001010000110011101110111101100000101000001000000010100000101000001011111011110000001111111100000000000000011011111110000100111111010111101101111110100000011111111000
1111101100000101000010010000000111111100000001100000000000000010000001110000011111110111111110010000001111111010111111100000010100000101111101001111011111111010000000111111101100000000111100111111011100000100000100011111101111111011000010011110111000000101
1111001100000110000000010000011000000000111100101110111100000111000001110000100111101111000001010000010100000111000100100000010000000111111100101111010011110001111101010000100111101101111110011110101000001100000011010000100011111111111110010000100011111011
1110111111110010111111101111101011110010111111111110111000100001000001011110110011101010000101101111010100000101111011110000110011111011000001000000110011111110111011110000100100000011000011111111010000001000111101100000001011110100111111111111010100001001
0000111111111011000010000001101111110011111101010001000100000010000001011110111100001011000111101110100100000011111111110001100111111001111111001111001000001110111011011111111000001010111110000000101011111011111101000000111000000000000110000000110111101011
1111101111110111000010110000111111110101111010001110101011111110000011110001100111101010000011101111100100000000111100000000000011110101111111111111011000000110111111110000000000001110000010101111001111110111111111011111111000010000000000110000000011111001
1111110011101001000000110000001000001010000011011111000111111100000010110000001011110110111110100000001100000111000000011111101011110111000001000000010100000001000010111111110011111110000011001111001111110100000100000000101011111111000000100000011111111100
0000101100001111000000010000000000000000111011000000110100000101000011000000000011111001000001101111101011101111000011000000010000000000111010011110111011111110111111100000011011111000111100101111100011110001000011011110110011101100111011010000011111101001
1110111111110111111001000010000100000111000010001110110111110010111100000000011111111001001110001110100011111111000100010010000011011111000100011111010011110000000001011101101111101101111101010000000000010000111111110000101000000000000000011111011011101100
1111110111111001000010000000000111110000111100010000110000001101111100000001011000000000000100011111110000000000111101001111101011111100111011111111101000000101000100010000101100001100000011100000011011110001111011011111001111110100000011000000100011111001
1111011100000101111110110000010111111100000000001111010000000110111110011110110000000000000001101111111111111000111110010000110000000011000001100000111000000011000000000000010011111001000011101111011011111110000000111111010011110000111111011111001011101011
1111000111111101111110100000011000001010111001100001000111111110111101100000000100001000000010000000001111111101000010100000011000000000111110111111100111111111000000000000000100000011111011001111010111101111111110000000000000001111111101101111011000000011
1111000100000100111100010000000000000111000011100000111011110110000000100000001011111110000011010000100000001010000100100000001100000100111110010000011000001000111100100000000000001100111101011111110000000001111110000000100011101110000011001111000011101101
1111111011111001111101100001100011111001111111010000010011110010000100000000011000010000000101111111010011110100000001110000100111110010000000000000001111110001111111111111001000010001000000111111101011111000000010011111011100000011111110010000101111110011
1110110011111011111110000010001000011001111111001110110111110000000000101111010000000101001011001111000100010001000010010010100011101110111100111110110100000011000011001110101100001111000010111111001100010000000011011111011111110010000011010000011111110011
1111001111111100000001100000110111101111111101100000000100000001000010010000110000010001000101011111011011111000111101000000010011111001111010011110111000001110111101011111111000000101111110000000111100001010000010000000011111101110111111101111011011110010
1110111100001110000000110000110000000000111110001110110100001000111101001111111011110001111111101111010111111011000000001111101100000100111011111111100111111100111110010000001100000010000000001110101000000000111111110000100111110001000001111110110111101101
1110110100000101111111001111110011111111111110100000000011110111111100110001000011101000000000100000101000000001111101100000010011111011000001110000000000001111111100101111101011111101111100001111110100001111000010010001001011101010000000111111001100001111
0000001011101101000000100010010000000101000000011111011100001001111101001101110000001101000000011110011111101111000100010000111000010111000010111111110111110001111011001111101011111101111011010000100011110100000000000000000011110111000001011111010111110111
0000000000001001000000000000101011111101000001100000000111111000111110011111111000000011000001001111010011111110000001000000001000001000000100010000000111111110111011001111010111110000000001001111011011111101000000001110111111110110000010010000111100001010
1111010000001101111110101111101111111010110111011111110111110101110101111111101011111011000100010000001111111011111110000001001000000000111100011111111011111101111011001111111000010011111110111110111100000011000011111111000100001000111110110001000111110000
0000011111101110000000010000111011111100111111001111001011111011111010100001010000000000000011011111101000001101111111011111111011111010000100010000001000000111111111111110111111110100000000100000011100001111111111001111110000001011000011001111001100001001
1110101000000101111110000000110111110100111010010001000011111111111011101111111100010001111111101111011111111111111110010000001000001011111110100001000000001000000100001111110000001100111100011110101011111101111111110000101000001001000001101111000100000100
0000100011110100000001001111101100000110000000000000101111110011111100010000101011101111000000010000010011111110000001010000000000000001111111010000100100000110000011100000010100001110111011000000111000001011000000110000010011101011111110110000011100001100
1111100100000111111111011111100111111000111011110000101111110111111110110000111011110010000010010000010000000101000001110000110100000000000011010000100000000100000010100000001000001100111110100001000011100100000100000000100011101001111110011110011111110101
1110111111111000111110110000101000000100000000001111000100000101000001011111011011101100111111001111101011110011000011010000000000000000111110110000100011110001000010101111000011111010111111000000110011110101111100100000001111110111000000100000111011101110
1111001100010010111111001111101000001110000001111110111011111011000000010000000111110000111101110000010100000000111101111111100100000010000000001111101011111011111110011111101111101100111111011111111100000101111100000001000100000110000000000000000000001011
0000010011101010111110010000000100000011111111000000001100000000111100010000000100001110111111100000101000000000000100001111110011110111000001101111000100000000111100011111001100010000111110111111010100010000111101011111011111111111000010100000100100010000
1111011000000110000010000000010100000110111111011111111100000001000011101111101111110111000000111111101100001101000000101111101100000000111111101110111100010001111110001111001100001100111111101110101000000101000011110000000100000011000101000000011011110000
0000111011101101000010110000101000000000111111101111111100000110111101000000010011111011000000001110111000000011111010011111110000000010000001100000001100000010111110001111111100001101111111011111101000001110111110010000000000000010000010100000011011111111
0000100100001100111100100001100000001100111101110000001111111000111101111111111000000111000100101111100100001011111111110001000111111100000010011111100000000010111011001110100100001110000011000001000000001110111111011111100111101011000001100000000100001111
0000111111101011000011010000111100000111111111101111101000000000111100110000011000001110111110001111110000001000000001001111010000000011111011001111000111111001111010110000101100000010111001100000101000001000111111011111000100000110000011011111100111111000
1111000111110010000100100000000111110101000000101111001011110110000000111111001100000000111111000000010100000001111111100000000000100010111111011111101011111110000000000001001000001010111111101111111111111100111010010000011000010010000101001110111111110100
1111100011111111000000001111101111111110111101010000010100001011000000110001010111110101000001000000011011110000000001000000100000000100000001101111011111101100111101010000001111101001000001010000010011110111000010101110110100010001111110000000101100001001
0000010111101001111111111111101000000011000000000000100111111011000010100000100100010010000000000000010100000000000000100000101111111111111101000000000100000000111100010000000100000100000011001111100100001000111111111111100100000001111101111111011000000000
1111110111101010111110010000000000001000111101111110111111111011000010100000000111110111000000010000011011111010000010110001001000010100000001000000000011111001000011000000101000001011111110010000001100000000111101001110111100000000111110111110111011110110
0000010111110101000010101111001000000000111001101111110011111111110101110000101100000111000001100000000000001111111100110000111011111010000010111110011011111111111110010000101000000111000001100000000011111001111011000000000000010001000000100000000011101111
0000101000001001111110101111101111110111111110111111111100000010111100110000101000001101000000000000110100000100111010001111101111111111000011111111010100000011111100001111100111110000111010100000110111111001000011100000100011111010000001100000000111110001
0000111000000100111110100000010011111011111010001111000111111010111110110000110111110000000001010000100100000010111011110000010111110111000001111111110100001010111100001111101111111001111010111110100111110111111101010000100000000000000001001111011100000011
0000101100001001000001010000010011111101000000110001000011111000000000110000101111111110000000011111010000000011111101110000000000000000111111010000010011110110111011000000000000000011111111010000101011111001111100000000110111111111111111001111011111110010
0000110111111010111101010001110000011001000000001111101000000011000010010001010100010000001000000000000011111111000000110001101011110101000000011111010011110111000100101110110100001001000000100000111100001010000011011110100000001111111111110000110011111101
0000011111110000000010011111100100001101111111110001000100000110111100100000010100001100111111000000011111110010000001100000000000001101111101010000010011110011111101100000111011111001000000101110101011101110000010100000010011101110000010101111110011101001
0000010011110001000001011111110111111111111100111111101111111010111101010000101011111010000000100000010111110110000010110001001100000011111110001111100111110111111010110000001111101111111110111111011111111110111110000000110111101101111110001111110111101011
1111010011101111000000000000011100000010111011010000111111110000111101010000011011110100000001110000000011111001111111110000001000000100111111010000110011111011000000101111110100000001111010110001001000000010000011000000101111110100000001000000001000000101
0000010000001000111110100000011000010100111000110000011100000100111011001110001100001010111010010000001011101001000010101111011100001110111111011110010000000100000000111111011011110110111110011111111011101100000101010000110000000010000100000000100100000111
1110100111111101000000000000100111111001000000110000110111111101000011110000000011110110000000001111001100000101000101011111110111111110111100001111111000000001111101101111001100010001111100101111110100000001000000001111111100000010000101011110111011110001
1110101100000000111111110000011100001101000000100000010100001110111100101111110011111101111101101111111011111011111100001111100111111111111110011110111100000011111011011111100111110000000011101111000100000000111011101111010100001111000010011110100000000110
1111010000001101000001010000001011111111111101110000010111111110111111110000001011111010111110100000000000001010000000001111110111111011000000001111000000001001111110101111010100010011111110010000110011111010111011110000001000000001000101000000101011111000
1110111111110000111111100000010100001011000011111110110100001000000000100000100000000100000001001111010000000000111101100001001100000011000001110000011111111000000010110000000000000011000010000000011111101101111100011111001000000011111110111111101111111000
0000111111111001111101100000010100000110111100001110101111111011111101000000110100000110000011010000010100000000111100110000100100000000111111011111100000000000111101011111101111111001111000000000110011111110000100101111101011110000111101011110011000001110
1111001111111101000010000000110100000000111111110000111100000110000000110000011011110001000000000000000000001111111110101111001100001100111011010000100000000010000000010000011111101110000011001111110011111011000100000000000000001110111111110001001000000100
1111101100001011000001010000010000000110000001000000111111111101000001100000011100000100000000001111101100010000111101111111101000000110000011001111110000001000111101101111111100001101111100100001000111101111000000111111011011111100000001110000111111110010
0000111000001101000100100000001000010001111100001111111100000101111100110000101111111000111110100000110100000100111011101111010000000111111101111111101100000101111101110001000111101100111101000000011100010001000000111111010000010000111111011111000100010001
1111000111111001000000010000001000000101111111111111111000000011111010001111100111110011000000010000010111111111000011000000001000000100111111100001000100000100111101110000101100001111111011000000100000000011000100001111001111111001111101110000001100001000
1111110000001111000011100000000100010000111101111111011000001010111100110000111000000010111111000000001100000011000001001111011000000000111100010000010000000000000011010001010011110010111111101110101100000010111011000000110111111100111111111111101111111001
0000111000001101000000001111101100000010111101001111111111111010000001000001000111101110111110010000100100010010000000001111111011111001111011110000110011111001000000111111111000001101000011001111110100000000000011111110101111101010000000001110111011111110
0000101100000100111111111111100000000111110111101111110011111001000011000001001000001000000011000000110000000010111011010000100011111111000011111111001100000111000001110000100100001011000000000000010000000100111100011111100011101010111101010000000111111011
1111010000001101111111110000001100000001111100101111101100000110111100010000101100010100000000111111110100010111111011111111100000000000111011110000011000000100111011101111010100000010000100010000100011101110111110111111000111101101111101001111110111101111
0000011000000110000000110000101000000001000010011111001100000100000000000000101000000101111111111111110100001101111011001111101100000001111101111111010000000000000010011111111011111010000001010000000000000100111110011111011100000001111101110000011111111111
0000111111111001111111000000110111111100111111001111101000001000000000010000100000001101000010010000000111111001000000101111110100000011000010010000000000000110000101010000000011110001000100010000010011101101111011100000011111101010111101010000001011101011
0000110011110110111111100000000100001111111101100000011111111010111111110000000111101011000011101111110000000000000000010000011011111111000000111111111100000011111011101111011100010000111101011110101111101101000001100000010100001010000010101111110011101100
0000101111101010111101001111100100000000000010011110101111111001000011110000000000001000111100111111100000010100000000011111101100001011111110110000010000001010000001001111111011111101000010100000000000001100000010011111101100001000000010110000111100000110
0000100111111101000000001111100100000110000010111111101100000011111110010000101111111100111111100000100100001010111011111111010111111100111011000000010111111001000010010000100100001101000000110000101011111111000100010001000000000011000001100000010111111001
0000101011111010000000001111010011110101111101111111101100001100000010110000100000001101111100111111101100000011111101001111100100000011000001101111101100000111000101001111101000001000000100101111010011111001111110111110100100001111000000001111101011111000
0000100100000101000001100000000000001000000011100000110000010001000010101111110100010011000000110000000011111111111100011111111011111101000001000000100111111101000010001111111011101001111111011111110011101110111111010000011000001101000001001111101100000000
1111110100001110000011001111110000001110000011011111111000000110000000000000100000000010111111100000010011111111000011111111100000000011111101010000011011111110111011000000111000001101111010110001000000000010111101111111011000000000111111000000100000000111
0000010000001100000000110000101000001000000000000000000000001010111101000000100011100101000001011111010100001100000001111111100000001010000100010000000100000010111111001111110000001011111110110000001011101111000000000000001111110010111110000000010011111100
0000100000000000000010000000011000000000111111010000010011111000000100110000011000000001000000001111100000001001000000101111100100001001000000000000000000010101111101010000101100000111000000001111110011110110000011010000111111110101000001000000011011101101
1111100111111110000001101111111100000011111111110001010100000001111110110000001011101101111001011111110100001100111101001111101100001000000011111111000100000101000011011111111100001011000000000000101100000000111010110000000111110101000000010000010111110010
0001001011110110111111100000010000000100000000001111010111110001000010100000111111111011000011110000010100001110111100110000011111111000111101100000000100000111000001001111110111110011000010111110110111111001000000001110110100001110111110111111001000001001
1110110111111010000001010001000011111111111101111111101100000110000000001111011111101110000110101111100000001100000011010000111100000101111101101111100100000100111110110000001011110110111100000000001000001111000001111111000100000111000000001111100111111000
1110110011101111111100101111101100000101000001110000110011111010000001100001010111101000111111001111100100010010111101011111100100001000111100000000010111111111000011100000000111110001111110100000011111110100111010011110110111110101111110000000011000000000
1111110100001010000010001111110100001010000000011111000000000100111110111111101011111010000000100000001100010100111111011111111011111101000001011111100000010000000000001111110111111111000000101110110011110110000000000000111111101100000101100000111000001110
0000010011101101111110011111110100010010111101111111101111111111111111010000011100000010111100010000001000001010000000001111011000001110111011011111000000000010111010110000010111111110111011110000101100001000111111011111000111101010000001100000000011110011
1111110011101100111111011111011100000101000010000000010011111010111101000000001011101011000001100000001011111110111101110000011111111100111011110000000011111001000000101111110111101001111101111111110011111001000011110000000011101111111111111111100011111011
1111111000001001111100010000011000000000111100111111110111111011000010110000100111101010111111101111100100010111111111001111010111111011111010110000000000000001111011111111011000001110000011101110110011110110111110000000000000001100111111100000000011111011
0000001111110010000010011111111000000010000010100000000000010100111101110000011100000010111110000000001100010010000011111110110000001001111111111111001011111101000011000000010000001101000100111111011111101111111101100000011100000011000010011110111011110011
0000110011111111111110000000000011111011000011011111111000000101111100110001001100001110111110001111010000011101111111111111010111111011111110001111001100001000000000001111010111110111000011101111111011110010111111010000000011110100111101011111100111111111
0001000011111011111111000000001111101111111111010000010000001111111101010000001011111101111100011111011000010111000001011110111100000010000000100000000000000110000001000000000011111001000010001111010111110101000010010000101011111001000100110000010011111011
0000010100000100111101110000001100000011111100000001001111111001000010100000110111110100000100100000011000000100000000110000100111110100000011110000010100001010111011010000000100000111111111011111011100010001111100111111001011111110111111111111110100001100
1111001011110000000000000000011100001111000011010000111011110100111100010000100000000000000001111111001111110010111011000000101011110111000000010000000011111000000001100000000000000111000011011111101111101010111110000000100011111100111110101111001000001000
1110101111110100111111110001101100001101111110001111010000000000111011011111000111111000000110011111000000001011000011100000011111111111111100010000101100000011111100011110111111111011111110100000111011101011000000110000000011111011111111111111110011111000
0001001000000111111101100000001100000010000001010000111111111111111011010000010111111110000000101111101000000000000010011111101100000111000011000000001111111101000010000000100000000011111101000000001000000000000100000000111100001011111101011111001111110001
1111110011110011111111101111010100000000000010100000001100000000111101100000011000001110111011011111011100010000111110001111011011111111000011111111110000000000000011000000010100000111000001110000111011101110111110010000000000001101111111001110011011101000
0000000011101011000001011110101000010010000011010000000011111110111110110000000011110001111101010001101000010101111011111110111000010100000001100000110100000111111101010000000111110100000010111111010000000000111010110001001011110110000101111110101000001100
1111010100000010111110010000110100000100111110011110101111111000111100101111010100000101000111111110011100001101111011010001011111111111111100001111001100000001111101111111100000000111111001010000111000001100000000110000010011110000111110101111011000000001
1111100011111100000000101110110000001001000010011111100100000010111011100000011011111011111101000000010000001011111010001110011100001010111011110000110100001010000010000000110111111100000001001111111000000010000001101110111000001000000010001110001100000000
0000000011101110000000011111101000000001111010011111001111111110111010100001000000001010000000101111000000011000111010100000001011111000111111001110110111110110000010000000001111101110111110010000101111110100000011101111010011101001111101001110010111111110
0001000100000000111111101111101100000111111110011111110111111111000011100000010111101101000011010000101011110111111101110000110100000011111011111111111111110111000000000000101011111100111101000001000111111111111110111111111100000011111101001111000100001011
0000111111111100111101010000011111110101000000010000110111111100111010000001011000000000000001001110111100011010000010001111110011110111000010001111001111111010111101110000000011111001000000111110110011110101000001111111110011101111000000000000000111110010
1111101011101001000001100000011111111111111101001111001100001101111010010000001011101010111111110000000011111101000000000000011011111011111011001111110000000100000000001111001111111100111101101111011000000010111110101111011000001001000000000000100111111100
1111011011101011111111010001001100000000000010011111010011111000000100101110111111111101000101101111111000001110000001010000001100000011111100100000111100000111111100011111100000001000111111111110111100000100000000110000100111111011000001111111011011111111
0000011111110110000010010000100011111110111110111110110100000000111100010000000100010000000001001111111100001001111010100000101011110010000010000000011100000000000010111111011011101010111100111111000011111000000011011110100011111111111110011111011011110010
0001010011101111111111010001001000010000000000100000011111111000111110111111100000001000000011010000000111111110111110100000001111110111111011010000000011111110111101110000011100001111111111000000100100001101111101001111110000000010111111011111100100000111
0000101111111101111101110000001000000001000010110000001011111001111111010000100000010001000010001111111100001010111011011111100000000000111101000000111100000101000100001111111011111101000000100000100111110001000010100000001111111100111111001111010111110011
1111110000000010000100000000101100010011000011111111001000010110111011001111011111110010111011100000010111110010111101010000010000001000111111001111100011111010111110000000010100001001000011000000101111111010111111110000011111111110111110110000000111101101
0000100011111010111101001111101100001001000011010001001011101101111100100000111000000001111111111111110011110101111111010000000000000011111100100000110111111001000100011111111111111001111110110000110100010000111111101111001000001101111100000000001000000010
0000010011110101000010011111101000001100000010111110110000000001000000100000100011110101111100100000100100001010111011101111000000010010111100011111101100000101000001110000000011111100000010101111111000000011000010011110101100000011000001101110111000001000
1111111000001101111110010000011111101111000010001111110111111010111000110000110011101011000001101110111000010010000000100000101011110100111110110000001011111101000010111111111111111100111110010000110011111001111111010000110011110000000000001111000100001001
1110101100001101111100000000100100000001000000110000100011110111000011100000000111101110000000001110111100001000111101011111111111111010000011111111000100000000111110110000010011111010000000100000010011111101000100101111001111101111000000101110111011111010
1111111111110010000001110000000000001000000010010000000100001100111110111111101011110111000000001111111111111111111101001111011100000000000011011111110011111010111111000000010000001011000001111111110111110111000000100000100000001000000001101111000011101100
0001000000001001000000000000011011111001000010100000010111110110111111000000100011101101000010101111001000000111111101000000011111111111000010001111001011111011111100101111010000001001000001111110110111110111111111000000101011101110111111101111011111111011
1110110000001100000000100000100100000111000000100000101011111010111110011111100000001011000101111111011111101101111010110001001011111110000001001110111111111011111101110000000000000000111101101110101111111001111111011111111011111010111100100000100111101111
1111001000000101111111001111010100001000111111101110110100001001000000001111110011101101111011101111110100000111000001101111101100000010000100000000111111111101000100011111110011111010111111001111110000000000000001101111111000001000000000100000110000000011
1111100111111000000000000000100100001011000000001111110000000111111000001111000100000111111110110000001111111110111010010000001111111010000011001111101011111011000100101111101100010001111010110001000100000011000001111110110111101110000000001111100011110001
0000010000000011000100000000010000000111111110000000011000000000000010000000100011101011111110110000001000001001000010111111001100000010111010011111010100000110000000101111111111101001000000001111100000000111111100101111101111110000000001111111001000001011
1111111111111110111110001111101100001010111011110001000100000010111011000001001100000001000000010000010000000000111101101111011000011001111101001111100111111001000011100000011000001101000001111111011000000010111110100000110100001101000000001111001100001111
0000100000000000111000010000010011100110000000001110110111101001111011110001011000001110000001001111010000100001000000011111100011110001000000010000001111110100000100111110001100001101000011000000101100001000000100011111110111110011111111001111011100000110
0001010011110001000001000000100100000110111101000000101100001100111111000000010011110100111100111111110011111110111101111111001111111100111100001110111111111111111111011111110111101100111100111111011011111111000100100000100111111000111101010000011111110111
1111100000001100000000100000000011111111000000000000011111111010111110110000111000000011111101011111010100010100000011011111111000000000111011001111010111111011111011101111110100000010000001000000010111111001000011101111000011110001111111110000011011111100
1111010000000011000001000000110000001011111111000000000011101111000001100000000000001111111111110000110111111110000001111110111000000000000010001111100100000100000000010000000011111001111101100000101011111101000010101110101111101010111110101111110100000111
0000011000001000111111010001010011111111000010011111001000000100000001011111110111110110000110101110111100010100000100011111101011110001111111001111111000001111111101001110100000001010111101000000000011110100111110101111000011111001000000111111001000001010
0000000100010000111110101111010011101101000001010000110011111111000010010000101111110111000010010000000000000001111101011111100111111001000010100000101100000101000100000000011100000011000010100000000100001100000001101111000111110101000011101110010100010001
0000110111111110000011100010000011111110111010110000000100000000111100101111110011111111001000001111001100001110111111100001011011110010111101010000010000001001111110101111011000000000111110111110110000000111000000100000000011111001000010001111000011111110
1111111000001010111110011111001011110111111101110001001011111100000000101111111111101011000000001111101111101011111011001111010111111101111110011111001011110000000010000000001000010001000010000001000000000000000010011111101111110010111101001111010111111010
1111011011101111000000001111110000000001111111010000000100000000111110010000101011101110111100000000001000000100111100011111010000000101111011110000000011110011000100000000000000001000111111100001000100001001111101010000000000000100111111101111101111111001
1111000100001100000100001111001100001010000000101110110100001010111011000001000011111100111011000001111000001111111110111111010100001001000000000000101000001000000000011111101111101011111111000000010111110010000000110000110111110101000100101111111111101101
1111100011101110000101000010110000000000000001010000011111111101000000101111010100010011001101011101011100011010111110010001011111101110111101100000101000011000000011001110110111111110111101010000010100000101111110011110100111101011000011101111010100000100
0000111111101111000011001111110100001000000001001111001100000111111111010000001011111011111110001111110100000110111111001110101100010010000001011110100000000000111100111111101111111001111011101110110111110110000000000000010000000000000011001111100111111010
1111101111101101000000001111100000000001000001011111011011111001111111000000100011111010111110100000000100001111000001001111011000001001000000111110010000000000000010011111111000001100000000100000000000000001111111011110110000010000000001101110011000001110
0000001011101000000000001111010100000000000011011111101011110111111101001111001011111100000010110000001111101010000011100001000100000000000100001110111011111100000010001111110111101001111111000000011011110001111110011111101011111111111110010000010100001100
1111100111110000111111000000001000000000000001011111000111110110000000000000100100000010000010111111100100011110111010111111110011111110111101111111000000001010111111111111100011101111111110111110100100000100000010000000110000010000000000011101111111111100
1110110100000111000001001111101111110111111101011111001011111000000001110001000111110100000000001111110100000001000010110000010111111001111110101111000011111110111110100000000111101011000000000000011011111101111011110000001100001111111111010000101000001010
0000101100001010000000110001000000000011111101101111101111111001111101001111101111110000000011111111111000001101111100110001000111110111111011111111110100000110111010101111001011101111111110111111001011111110111101110000000000000001000001000000000011101011
1111111000001100111100100000010011111111000000000000011111110001111011000000100000000100000001100000000100000011000011000000010011111100000010000000011111111101111111001111111100000011111101101110100111101110000010110001000011111110111110011111001011111010
0001001011110100000010110001010000001011000001001111110000000100000001000000010011111001000011101111011100011000000010101111001000000000111111000000001100100110111011001111100000010001000011111111101011110101111100010000011000000101000110011111011000000010
0001000100000100000000010000100100001000000011010000111111111100111011010000101100000000000100101111110100010010111101010000011111111111111010101111101000000110000100001110111000000110000011001111000111110100111111001111000011101111000000101111101100001010
0000010000001010000001101111011100001001111110001110100100001110000001010000000100000010111010000000100011101100111111011111001000000001111100101111111111101000000100000000010011110011000010111110110111101011111100010000101011111100000000111111110111110100
1110101000000011111110011111001011110111000010001110111011110010111110100001110000001011000001111111000111111000111111001111110111111110000000110000000111101010111111010000011111110110111110000000010000000010111110001111001000010001111010111110110011110011
1111111111110101000001111111110100000101000100011111000000000101111111110000101011111001111011100000001100010100111100011110111100001110111110100000110000001110111001111111100111101011000001000000001011111001111100001111001100000010000011110000000011110011
0000100100010001000000001111100111110100000010101111010111101000000011010001011011110101000100111111111100001011111011001111110100000000000010011111010000001011111111000000110100001010111100010000010100010000000000110000111100001111000000011111001100001001
0000111111111001111100101110110100001100111110000000010111110000000001110000101100001010000000000000100100000110111101101111011011111101000000101111100100000011111101111111111000010011000011110000100011101011111110001111011100000011000000001110100100001000
1111000011101100000111111111001000000000111111101110110000010111000001100000011111110111111001010000111000010001111010011110100000001100000010011111010011111101000000000000011100000000111100001111111000001001111011110000000111111000000010110000100111110101
0000100100000110000011010001100011110011111110000000000111110101000001100000001011110111000110111111000000011111000100000000101111111111000011001111000000010010111110011111111011110000111111110000011111110001111100001110111011101001000010101111000000000110
0000011100000010000010000000010111101111111110010000000111111001111100010000001011110010000100111111101011101100111110010000010111111010000001001110111011111101111110000000100111101001111110001111101000001101111111010000001100000010000001111110101111111101
0000000011101000000000101110111000000010111011111111100100000101000010110000010100001000111101001111111111111000000001111111111000001001000000001111100111101011111100011111100111101001111100001111110100001001000000001111011000000110000001101111010111111111
1111001011110011000000000000000000000000111100001111001100000001111100011111101011101111111100110000000111111100000100011111110100000100111111111111111011111110111111101111111111101101111100110000100111110100111010101111111000001000000010010000101000000000
0000011111111111000001111111010100010010111101110000111100001010111100000000100000000000111011110001011000100101111100111110010000010000111110110001000100000110000000110000011111111111111110101111000111111111000100001111111111110000000110001110001111101001
0000110100001111111110101111110111111100000010001111110100000011111111110000010100000010111110110001000000001111111100111111010100001001111111001111110000001100111101111111100000001111111011100000010100001010111111111111100011101010000100010000011000001011
0000000011110001111100100000001011111101000011100000100011110111111101110001000100001101111111101111011000100001000011111111010111111001111101111111111000000000000000111110111111101111000010111111011100010001111111001111011100000000000010010000011011111100
1111011000001000000011001111110000000110111110010000101100001101111111101111101111101011111101000000010100001010111111001111001011111100111101000000100100000001000100011111011100010001111101100000000111111010000100001110110011110101000000111110111011101110
1110100111110110000000011111111100000100111110101110100111111111000001100001000011111000111111111111111000000111111100011111110100000011000100101111011100000010000001011111111100001010111111111111101111110000111110011111100011110110000000001110111100010001
0000110011110100000011001110111000001101111110110000011100001100111010100000110011110110111000110001001000001000111100111111000100000000111110110000001111111000111110001111001000010001000000001110101011110101000000110000011011101100000110101111100100000100
1110110000000001000010010010000111111100111110010000011100000000000011111111001111111000001010001110001100100100111111100000010111110101111111000000011100100011111100111111001111111011000010010001001011110010111011111111010011101001000110110000111011101111
0000110011110110111101101111010100000111000000110000101000001110111111010000000011111000111010100000100100001001111010001111001100011010111100001111101000001010000001000000000000000101111101100000011000000000000100010000111100000011000010111111010011110111
1111100011101101111111000001010011111110111011111110100011110010111111000000111111110101000100100000111100000011111100010000001011101001111101001110111100011010000011110000000100000000111110110000001000000110111010011111000111111010111111001111011100000000
0001001011110110000000101110111011101001000011110000010100000110111110111111101100000010000001001111101011111100111111011110101000001011111110001111011111111001111100100000010111101100111101101111111011111100000001011110100111110000000010001111011100000101
1111001111111100000001101111001100000001111100111111110000000100000001110000001111110010111100001111111011110111111110011111101000001000111010011111011011110000111100101111111100001111111111011110111011101010000000000000101011110111111111101110110100000110
0000110100001100000101001110100111111100111111010000101011111100000010111111111000001010000000100001000011111110000100101111011100001101000001000000001100000011111011010000010111101101111110000000000000001000111110101111001011111101000010001111100011101111
0000011011110111000100110010100000000110111101001111101100000010111111010000101000000000000100101111101000100110111101001111101111110011111110101111011100100101000000001111110011111110111111011111001111110110000000010000001011110110000010111111010011110101
1111101100001011111111011111001100001011000000000000001100001110111100010000010000001001111011010000001111111100000001001110010000010100111111010000111011110001000011110000001000001000111111001111101000000000111010111110101100001110000000101110111100000000
1111110011111001000000001111011100000000111111100000000111111100111011010000010011101101111101010000101000000111111101101111110011111111111101101111011100000100111101100000001011101100000000111111010111110110000011011111011000001010000010010000000100001100
0000000011110100000001000000000011110101111111100000100011011110000011001111000000001011000001011111000011100111000000110001110000001000111010101111100111100101111110110000001111101100111111011111010111111000000100101111111111101111111100110000000111110110
0000110111101011000001010000000011111111111111011110111000000010000000100000011100000110000000010000110011111101000011001111111111111101111011010000000000000110000011011111101100010000111101001111011000001110111110000000000111110001000000101110100000000101
0000101000001100111101110000000011110111111011000000100011111010000000000000000011111110000001100000000000001110111110101111110100000000111100011111010000001000000010010000010000000001111101101111001011111111000100011110100100001101000000001110111100001000
1111010000000010111011000001011000000111000000000000111111101101000011110000000111111101000101111111101100010011000100100000110111101101111111000000111100001110000010011111000100001000111110000000010000001000111101111110101111111010111111111111011011101001
1111101100000010111100010000101111111111111101011111110011110010000010001111111111101011000010111111111000000110111110110000101011101111000010000000100100001000111110111111111100001000111110111110110011110010000010111111000111110101111011111111010011111001
1111110000001100000100010000000100001111111110001111010100001111111010100001000111110010000000100000010000101010000001011111001000001100111110101110101000011100000000000000010111101111111111001111010011111011111011101111100000000111000101001110001011111001
0000000111111111000000000001010100010010111110100000101011111000111011111111100011110010000010111111000100010100000001110001001000000001111100011111001000000010000101001110110111101001000001001110101111111110111011000000001100001100111111101111010011101110
0000101000010000000000001110110100001101000100101110100000010111111011010000001011101101111000000000100011111010000001001111010100001111111101001111100011101110111010110000001011111000000000000000111111101101111010110000000000001011000001001110000100001000
1111010011111100111101001111011100000000000000000000100011110101111110101111111100000010111111001111011000000010111100000000000000000101000000110000000011110001111011010000010000000011111111001111000011110101000100010001000000000100000000110000001000000001
1110111100001011000100010000001011111101111011010000100111101111000010111111100100000101000010110001010000000011000001110000000100010111111111001111001100010000111010100001010011111101111100010000010111100110000000110000001000000110111111010000001000001111
0000010111111010111101100000110100000001111111000000011111111001111101110000000011101111000010100001100100010010111101001111000100010110111100110000010000010111111111100000000011110011000000110000101000000011111110100000000100000101000010011110101100010001
1111000011111011111101101110111100000110000010000000000000000001111110111111100000001011000000000001001100000111000010011111100000000110111100001110100100000001000000101111100100000000000010101111011000000000000010000000110000001111000011001110000100000010
0000010000001000000101111111011100000101111010001111111100010111000010000000101111101011111010010000100000000101000000001110110000001001111010110000010111111011000010000000101000001010111010101111100111101101111110101111110011110010000000111110101011111000
1110111011101111000010000001100011111001111010111110110111111100000000100000000111101010000101010000100000010110111110110000000011110110000010111110000100100101000001110000010011110000111101101111101011110111111010100000111100001001111111010000011111111010
0000111000001000000001000000011111101010000000101110110000000100111101010000111011101100000001010001000100000000111101001110010000000100000011100000000000011010111010110001100111101100000001100000000000000010111111110000101111101011000000000000110100000000
0000010011110101000001001111011011111110111110011111000000000000111010100000010011111000111010100000000011110011111110001111110100000011111101111110100111011110111110000000000011111011000001011110111111101110111101110000111011110101000000001111001111110110
1111110111110001000000111111011100000001111101100000010100000000111110111111110011111001111110000000001011110101000001101111110000000100000001011111100111111011000000111111111100010000000001111110110111110000111011010000100011110111000001101110110111110001
0000111011101100000001001111101000001101000011100000000000000010111111110000100111110110111100000001011000011000111010011111010000010101000011100000110100001011000011101111111000010100000000111111010111101101000010111111011000000011000010111111110100000110
1110100100001000111101001110111011110110000001001111010111111011000001101111110011111101000000101111111111110110000010100000110111110010111100110000010100010011000010110000000100001101111111001110111111110010000010110000100011110010000100001111100111110101
0001000111101111000001001111100100000111111100011111101111111110111001000000010011110010111101001111101011111001000100000000001100000010111110001111100111101110000000001111011100001110000011101110111000001100000001011111010111111110000011101110110111101111
1111001111110001111010111110111011111110000000110000101000001001111011011111110000000101111010110000011011110011000010111110111100000000000010011111000111110001111101000000000000000100111110001110101011110000111011010000101100000000000001000000011000000111
1111110111110011000000001111011111111110000001011111111000000111111111001111101100000101111110110000011111111001000100011111110100000001111010111111101111111111111101000000000111110010111100010000110011110010000011111110111100000100000001011111111011111000
1110111011111000000000011110110100000111111101000001000000000100000010011111101111110001111001100000010111111111111101101111101000001000111100000000001011111010000001000000000100000001111100101111100011110110111101111111001000000001000010011111000011101000
1111010011101100000001010001010011111000111100110001000011111101111110010000010100001001000100010001110000010101111110001111000011101111111011101111100100100011000010101111100111101111111011010000001111101010111011100000101000000000000011011111011100000011
0000100011110111000001101111011100001111111011100000110100000100111101110001001011101100111010000000100000001001111111101111010100010101000001111111011011111101111111100000011000010000111100110000000011101110111110000001000000001001000001111111110111101100
0000000111111111000110010000110111110101111011100000001000001010111101110001101000000110000100000000011000001011111011011111000011110111111101001110001100100001111100000001011000000010000010110000110000000101111011101111011111101011000000000000001000000010
0001000111110010000001001111000011111100111111000000111000010110000001101111100111110110111011000001001100001001111110001110111000001000000100011101111111111001111010010001010000000000111010100000100011101110111011100000001000000001111101010000011011101101
0000010111110110111111111111010111111101111101001111110100000101000001101111010100000100111101011111110011110101111100001111110000000011111110101111010011101101111101010000000111111001111100010000100000001111000000000000101100001010111111011111000100001110
0000100100001001000101101110101111011001000000100000000111101110111101101110010011101000000111011110000111101101111101100001011000010010000001111111011011111100000100110010100000001101000001010000111111110011111110001111010111110011111101100000111111110011
1111101011111001000001010000110000000000000100000000011000000101000000000001000111111000000000110000010100010100000100011111001111111111000000011111001000000111111011010000101111111011111110010000001011110001000100101111000000000110000000001111110100001010
1111001100000101000001001110010011110010000010111111111100000110000010001111010100000000111100011111101111101011000000011111100000010111111010111110100011100011111011100000111011110101111111001110110100000100000010000000101000000110000000100000111011111110
0000101100001101111111111111100000000011111101111111110000000011111110010000011011100111111111000000111100000001111011011111101011111111111100011110100011111111000000000000010011101110000000111110101011100101111101100000101111111111111111011110010100001000
1111111100000010000000111111011111111101111000000001000111100010111101001110010111101100000111101100011011101110111100000010100100000100000011110000101011011010000001110000001111110010000000011110110011111101000011101111000000000011111011101110101000001010
0000110000001011000010010000000011111011111111111111100100001001111010101111111000010000000000000000000011111111111100011111101100000000000001101111101000000011111100100000101011111101000000000000010100000011000001011111111000000100111111110000000011110000
1111111100010000000000000000101011110011000000111111010100001001111110000000100011111000000000100000111000001000111101101111111011101101000001101111001000000111111101100000010011110000000001101111100011110111111101110000100011110101111110001111111100010000
0000011100001101000000010010000111110111111110100000000011111101000000000001010000000101000110000000000100001001111101110001010111101000111111101111010100010101000000100000001011110011111101011110101111111111111100010000010011101101111101001110101100001100
0000110100000100000001100001111011111111111110100000101011111111000000000001001111111000001001010000100000000110111110010000111111011010111100000000000000010100111100100000010100001000111111001111001000000011000010010000111111101100111101101110110011111001
0000100100001101000001001111110100010011111110100000111000001011000001000001100000000010111101110000011100010001111110111110111100010101111110010000000000001001000010100000100000000001000000011111010100000011000010000000010111110100000000111111100100000000
1110101011101011111111110000010100000001111100011111101011111011111011000000100100001100000001001111100100000110111100110000101011111010111011010000011000000000111100000000000111101100000000001110101000001111111101101110100000001110111100011111000000001011
0000001100001010000001001111110000000000000000101111110000001010111100100000101011110110111010001111101000001000000010101111101100001111000001101111000011110011000010110000100000001001111011010000100000000100000000011110111100000110111111100000001100001000
0001000000000001000000110000010000000001000001000000101011101111000001000000000011110101000001001110110000000101000010110000010011111100000000001111111011101110000000100000001100001101111011011111111011111011000010100001000011101001111111110000000011111000
1111110111101010001000011111000111100011000010101111011111100100000010111111000100001100000100011111000111110010000001110001000000001001000010111110101011111000000011010001001100000001000011101111110111110100000000111110101000001100111101011111111100001000
0000001111101111111011000001010000000100111110101111101111110110111100011111001100001100000010000000010100000001000100100000010000000100000011001110111000010101111100011110111100000000111011000000000011111001111110010000010000001001000011011110110111111011
0000010100001111111011110000001100001011111110111111000111111000000001101111010111101010111011010000100100000101000010110000011100000001000010010000001100000100111011001111100011111110000010010000110111111010000000000000011100000001000001010000000100001000
1111111000000100000011111111100111111100111110100000110000000101111111011110111111110101111101011111111011111101000010011111101100001111111101111111100011111101111111010000100111110011000000000001001000000100111101010000111111101010000011110000101100000001
1111001011110001000110010010001111100110111000011110101100010011111110000000010011111111000111100000000100100010111100101111010011111101111101000000010100101000000011010001010011111001000000100000010100001111111100111111001111111100000010110000000011101001
1111111100000011000010010000000000000010000001101110100100010010111001111111001000001000111111011111111000010011000101001110110100011101111011100000110100011010000010100000010100000001000001001111010000000110111111001111100100001110000100101111011011110100
1111110011110101111110101110110011101100111110100000001111110011111000110000001011111101000000001110100011110101000011010000100111110010111010011110100011100100111101010000000111111110111101011110100100000101000010110001000011111100000000001110111100001110
0000111011111110111111001111111000000001111100000000001111111000111111010000001100000000000001000000000011111100111110011111111011110111000001001111011100001000000000001111110011111011000011100000000011101101000100010000101111110001111100110000011011111001
1110101000001101000000100000001100000101111100011111011011111100000001101111111000010010111100100001010100001001000011011111010011111100000010111110111100010101111111111111010000001100111010110000111100001110111101111111011011111101000100110000000011110011
0000011011101110000100000000001011110111000000001110101011110000111000001111010011110110000100011111100111101100000010100000110011101101000000100000100000000100111110001111111000001010111111111110101111110101111010001111000100001100111110101111110111111101
0000001011101111000001101111100100000000111110100000001100001001111001101111000011110010111110001111101011111001111110100000001011111011111100101111110111110111111110000000001000010011111010101111110111111111111101111111001000000011000010111110110000001001
1110111111111001111010101111111100010000000010010000111000000100111011101110010100000000111101110000010111111010000011001111111100001001111111001110100011101101000000111111011111111110000000000000110111110001111010001111000000000111111110001111000111110000
1111110100001011000010101111111111111011000010001111111100000110000001111111101000000101111111110000010111111101111101101111100100000111000011000000010000000011000000000000100111101101111011001111011011111110000011110000110011110100111111110000101100001001
1111010011101011111111101111111100001001000000110000101111111111000010001110100000010000111101101111100011111101000010110000000100010011111010010000110100000000111110011111111000000000000010111110100100000100111110111110111011110100000001111111101011111100
1111001100001101000001100000100011110100111101111110100100001100000000101111010000000101000001100000101100010000111010111111000100000100111100011110001000010000111110000000001011101100111110110001000100001100111010010000100000001111000011011111001111101001
1110110111110000111111111111001111110111111011110000001000001010111111000000011111110100111111010000100000000110000001101111110000001010111111101110111000000001111100110000100000001101111101101111111011110011000100011110110011101001111111011111001000000110
1110110100000100000010110001000111110110111011101111101000000111111111100001000111101100000101100000001000010000000000111111101100000011000010001110111000010110111010110001001000000110111011111111011011101101000011110000110100000000000000011110111111101110
1111001000000001000001101111100100000100111110110000010100011001111110011111110111110101111110010000100000000000111101101111111100000111111011001111101111110001111011011111011111110010000001011111111111111101111011101110110011110001110111110000001011101111
0000100111111011000010111111100111110000111110110000011111110110000010111111110011110011000000001111111111111010111111001111111000001010111100001111000111110111111100110000110000001100111101101111101000000000111010111111110011111110111100100000101011110001
0000000000000001000101111111101111101010111111101111000011100100111101101101111100001111000101111100111111101110111011110000110011111111000000001111110011100011111011000001000011110111111110001111110011110000000011011111010011101100111100011111011100000111
