00010001111000001111101100000101110111101100101000111000111101100000000100000001
00010101111000010000000011100110000100010000100000000011111111011110111111110011
00100011100101110000110110000000100000000010000110001111001000111000000010000000
00001001000110100000001000000011111001110010100000111100111110111111100000000000
00010000111100110000010111110001111011110100001011111101111010000000010000000001
00000011111101100000000100001100000100111110110111001110111100111111111100000010
00000010110110101111110111100111111011000000101011110101111010110000000000000000
11111011001010110000000000001111111000110001010111000001001000011111010000000000
11101110110011001111111000001101000001011101010000000101000100101111010100000000
11101101111101001111111011101000111000101100001100111000000111101111110100000000
11000111010000111000000010010001010110011000000001001101100000000010001110000000
11100111000101000000000111111010111001100011010000011111000011100000001011111110
10000000100101011010000110110000100000000100100110000000010001010100101010000011
11111110111000001111111100001011000000110011011011100001111101110000100111111111
11101101000011111111111011100111000001010010000000011001000110101111011111111111
10101010010011111010010110110110010000011000000001000100010000101000011010000000
10000000100000001000000000110011000110101000000010000000100000001000000000001111
00000000001000001111110011110011000110101111111111000000110111100000001100000010
10000000100000000100100110000000100000000100000100111010001100111001101110000000
10000000100000001000100110000000100000001000000000101010001111100010011100110010
10001100100001111000000001010101010000000100010010000000100000000010110110100010
00000001001100101111110111110010000000010001111011101010111100111111111111111100
10000010100000000011001010000000110100111000000000111100100100010010000010000000
00010110001011111111110111111001110111000011010000011000111010011111111000000010
00110111010000001000000010000000100000010010111000011110100000001000000000110000
11111001001100000000010100000001111111101111100100110110111000010000011100000010
11111101001001011111010100010110000110110100010100110111111110100000101011111111
10000000100101011000000000100101100000001000000000100000001000001000000000100111
10000000001011111000000001001011100000000011011110000000100011100001101010010101
00110001100010001000001110000110010000100010101100101111100000001000000010000000
00000101111111000000000011110110000101001110001111001001001000100000001000000000
11111111001011000000000011101111111101100011101000011011000000101111110000000001
