00100010001000001011011111001100000110001011111000011111000111111100101111000101
10111001110001000010000111000100101111001100001100101011001001110001100111000010
00000000000000000000000000000000000000000000000000000000000000000000000000000000
00010100101011110001010010110111000101001011011000011010000011011100010100011001
10111010001011101100001000100010110101011100011111000101110100010001100100100100
00011101101101110001111111000001001100000010100110111100110000111101110111001001
11101100000110101100110111100111001100011101011011000101110111100011110010110010
11111011111111111111110100000000000001101111111111111010111111111111111111111100
11001000000011111010110100010101000100110010010100100010101010100001001011000000
11100101110111101101111011011000111000001101100111001001110010000100000101001011
10110101110101011100001000101100001101001100100111010101001101011110111111011011
00010001000100011011100100010010101011110001010000011111000100001010101100010011
00100010001001100001110110101110101101011100100111101101001000000001100111000100
11001011101110001100001100101001110010101101111111001000001010010001101000100101
10111111001101001111111011000110101111100010110011001101001001110010000011001111
00111011001110001100011000110001110100101101110111011101110100101100010011100100
00010001101001100001001100011010000011111011111000011101110000011010110100010011
00011100000101011101101110111110000101011011100100011100110010110000111000010111
10111110110100111101011111010001110001111101000100111010001010100010100011000110
00000000000000000000000000000000000000000000000000000000000000000000000000000000
00011111110010000010010011000111101100010010011111010100001001101100110111001111
00000000000000000000000000000000000000000000000000000000000000000000000000000000
00010101000010101011001100010101000101000001101110111100101100111010110100010100
00101010110000011100000000100011110011100010011011000100000000100010011011000111
00000000111111110000000000000000000000000000000000000000000000000000000000000000
00001011000110100001010010110011000100000001011000011011101101001100001110110111
11000000101110010011000000100110110000000010110011000101111011010010000011010010
10111100000101001100000100010110000110110001110010111011000110111100000000011000
00010100000100100001100100011111001000001100101110111011110010010001010111000110
00100000110001100001111010111001101110000010001110111011101011010001100000100001
10100011111101000001111000011110000110101011011100100011110111010000010011001010
11000001001100010011001111001010110010111100001111011101001011101011011000101000
